{
  "version": "1.0",
  "truncation": null,
  "padding": null,
  "added_tokens": [
    {
      "id": 0,
      "content": "<unk>",
      "single_word": false,
      "lstrip": false,
      "rstrip": false,
      "normalized": false,
      "special": true
    },
    {
      "id": 1,
      "content": "<s>",
      "single_word": false,
      "lstrip": false,
      "rstrip": false,
      "normalized": false,
      "special": true
    },
    {
      "id": 2,
      "content": "</s>",
      "single_word": false,
      "lstrip": false,
      "rstrip": false,
      "normalized": false,
      "special": true
    },
    {
      "id": 32000,
      "content": "\t",
      "single_word": false,
      "lstrip": false,
      "rstrip": false,
      "normalized": true,
      "special": false
    },
    {
      "id": 32001,
      "content": "\n",
      "single_word": false,
      "lstrip": false,
      "rstrip": false,
      "normalized": true,
      "special": false
    },
    {
      "id": 32002,
      "content": "$",
      "single_word": false,
      "lstrip": false,
      "rstrip": false,
      "normalized": true,
      "special": false
    },
    {
      "id": 32003,
      "content": "<",
      "single_word": false,
      "lstrip": false,
      "rstrip": false,
      "normalized": true,
      "special": false
    },
    {
      "id": 32004,
      "content": "\\",
      "single_word": false,
      "lstrip": false,
      "rstrip": false,
      "normalized": true,
      "special": false
    },
    {
      "id": 32005,
      "content": "^",
      "single_word": false,
      "lstrip": false,
      "rstrip": false,
      "normalized": true,
      "special": false
    },
    {
      "id": 32006,
      "content": "`",
      "single_word": false,
      "lstrip": false,
      "rstrip": false,
      "normalized": true,
      "special": false
    },
    {
      "id": 32007,
      "content": "{",
      "single_word": false,
      "lstrip": false,
      "rstrip": false,
      "normalized": true,
      "special": false
    },
    {
      "id": 32008,
      "content": "}",
      "single_word": false,
      "lstrip": false,
      "rstrip": false,
      "normalized": true,
      "special": false
    },
    {
      "id": 32009,
      "content": "~",
      "single_word": false,
      "lstrip": false,
      "rstrip": false,
      "normalized": true,
      "special": false
    }
  ],
  "normalizer": null,
  "pre_tokenizer": {
    "type": "Metaspace",
    "replacement": "▁",
    "prepend_scheme": "first",
    "split": false
  },
  "post_processor": {
    "type": "TemplateProcessing",
    "single": [
      {
        "SpecialToken": {
          "id": "<s>",
          "type_id": 0
        }
      },
      {
        "Sequence": {
          "id": "A",
          "type_id": 0
        }
      }
    ],
    "pair": [
      {
        "SpecialToken": {
          "id": "<s>",
          "type_id": 0
        }
      },
      {
        "Sequence": {
          "id": "A",
          "type_id": 0
        }
      },
      {
        "SpecialToken": {
          "id": "<s>",
          "type_id": 1
        }
      },
      {
        "Sequence": {
          "id": "B",
          "type_id": 1
        }
      }
    ],
    "special_tokens": {
      "<s>": {
        "id": "<s>",
        "ids": [
          1
        ],
        "tokens": [
          "<s>"
        ]
      }
    }
  },
  "decoder": {
    "type": "Sequence",
    "decoders": [
      {
        "type": "Replace",
        "pattern": {
          "String": "▁"
        },
        "content": " "
      },
      {
        "type": "ByteFallback"
      },
      {
        "type": "Fuse"
      },
      {
        "type": "Strip",
        "content": " ",
        "start": 1,
        "stop": 0
      }
    ]
  },
  "model": {
    "type": "BPE",
    "dropout": null,
    "unk_token": "<unk>",
    "continuing_subword_prefix": null,
    "end_of_word_suffix": null,
    "fuse_unk": true,
    "byte_fallback": true,
    "ignore_merges": false,
    "vocab": {
      "<unk>": 0,
      "<s>": 1,
      "</s>": 2,
      "en": 3,
      "er": 4,
      "ch": 5,
      "▁d": 6,
      "ei": 7,
      "un": 8,
      "ie": 9,
      "st": 10,
      "in": 11,
      "an": 12,
      "es": 13,
      "ung": 14,
      "ich": 15,
      "ein": 16,
      "on": 17,
      "▁S": 18,
      "au": 19,
      "▁s": 20,
      "und": 21,
      "ge": 22,
      "al": 23,
      "▁w": 24,
      "▁die": 25,
      "sch": 26,
      "▁der": 27,
      "te": 28,
      "▁A": 29,
      "▁und": 30,
      "▁D": 31,
      "▁v": 32,
      "or": 33,
      "it": 34,
      "ten": 35,
      "ar": 36,
      "▁B": 37,
      "▁ein": 38,
      "el": 39,
      "▁b": 40,
      "ti": 41,
      "▁z": 42,
      "as": 43,
      "hr": 44,
      "ur": 45,
      "gen": 46,
      "▁E": 47,
      "▁i": 48,
      "▁m": 49,
      "ter": 50,
      "▁M": 51,
      "der": 52,
      "▁au": 53,
      "em": 54,
      "▁in": 55,
      "den": 56,
      "▁K": 57,
      "▁n": 58,
      "▁G": 59,
      "▁F": 60,
      "▁W": 61,
      "lich": 62,
      "et": 63,
      "▁f": 64,
      "▁P": 65,
      "▁zu": 66,
      "▁V": 67,
      "ol": 68,
      "▁I": 69,
      "eit": 70,
      "at": 71,
      "▁h": 72,
      "ber": 73,
      "▁k": 74,
      "ür": 75,
      "am": 76,
      "ach": 77,
      "le": 78,
      "▁R": 79,
      "▁H": 80,
      "de": 81,
      "ir": 82,
      "▁T": 83,
      "is": 84,
      "ier": 85,
      "▁L": 86,
      "▁von": 87,
      "▁das": 88,
      "ro": 89,
      "▁den": 90,
      "us": 91,
      "ra": 92,
      "▁er": 93,
      "il": 94,
      "▁g": 95,
      "▁ge": 96,
      "ab": 97,
      "re": 98,
      "▁1": 99,
      "▁an": 100,
      "ig": 101,
      "isch": 102,
      "ut": 103,
      "ck": 104,
      "um": 105,
      "▁N": 106,
      "and": 107,
      "om": 108,
      "eh": 109,
      "icht": 110,
      "sen": 111,
      "▁2": 112,
      "▁(": 113,
      "▁mit": 114,
      "▁ver": 115,
      "▁Ver": 116,
      "▁für": 117,
      "▁ist": 118,
      "▁auf": 119,
      "▁U": 120,
      "ent": 121,
      "ft": 122,
      "▁Z": 123,
      "se": 124,
      "▁des": 125,
      "▁al": 126,
      "tion": 127,
      "▁im": 128,
      "▁o": 129,
      "rei": 130,
      "▁Die": 131,
      "▁un": 132,
      "ell": 133,
      "nen": 134,
      "ungen": 135,
      "▁In": 136,
      "men": 137,
      "ben": 138,
      "▁St": 139,
      "▁J": 140,
      "▁sich": 141,
      "▁be": 142,
      "ann": 143,
      "ff": 144,
      "ungs": 145,
      "▁Sch": 146,
      "ahr": 147,
      "▁An": 148,
      "▁eine": 149,
      "kt": 150,
      "ah": 151,
      "ser": 152,
      "ind": 153,
      "ver": 154,
      "än": 155,
      "▁wir": 156,
      "▁C": 157,
      "sp": 158,
      "▁aus": 159,
      "▁wer": 160,
      "über": 161,
      "▁l": 162,
      "▁dem": 163,
      "ien": 164,
      "▁nicht": 165,
      "ag": 166,
      "▁werden": 167,
      "len": 168,
      "▁Sie": 169,
      "eu": 170,
      "ation": 171,
      "▁20": 172,
      "ik": 173,
      "▁bei": 174,
      "chen": 175,
      "etz": 176,
      "sten": 177,
      "▁p": 178,
      "▁O": 179,
      "▁Ein": 180,
      "▁auch": 181,
      "ehr": 182,
      "esch": 183,
      "ger": 184,
      "▁oder": 185,
      "▁Er": 186,
      "wei": 187,
      "▁st": 188,
      "▁über": 189,
      "▁als": 190,
      "iel": 191,
      "▁so": 192,
      "▁Be": 193,
      "uf": 194,
      "▁es": 195,
      "cht": 196,
      "▁Un": 197,
      "ischen": 198,
      "▁Re": 199,
      "be": 200,
      "och": 201,
      "..": 202,
      "ön": 203,
      "▁sind": 204,
      "ri": 205,
      "urch": 206,
      "gt": 207,
      "ern": 208,
      "ul": 209,
      "scha": 210,
      "eil": 211,
      "▁um": 212,
      "lei": 213,
      "ün": 214,
      "hal": 215,
      "▁sch": 216,
      "▁„": 217,
      "ät": 218,
      "▁vor": 219,
      "▁j": 220,
      "ort": 221,
      "▁dass": 222,
      "▁t": 223,
      "tern": 224,
      "▁Ar": 225,
      "ot": 226,
      "▁wie": 227,
      "ru": 228,
      "▁nach": 229,
      "▁Pro": 230,
      "enn": 231,
      "▁sein": 232,
      "aus": 233,
      "ad": 234,
      "ion": 235,
      "▁wird": 236,
      "▁einer": 237,
      "lichen": 238,
      "end": 239,
      "tig": 240,
      "ing": 241,
      "wer": 242,
      "os": 243,
      "stell": 244,
      "im": 245,
      "for": 246,
      "ör": 247,
      "aten": 248,
      "mer": 249,
      "he": 250,
      "▁zur": 251,
      "rä": 252,
      "oll": 253,
      "00": 254,
      "hn": 255,
      "utz": 256,
      "schaft": 257,
      "är": 258,
      "▁hat": 259,
      "▁Ge": 260,
      "ers": 261,
      "zu": 262,
      "op": 263,
      "▁durch": 264,
      "▁kön": 265,
      "tel": 266,
      "▁sie": 267,
      "▁En": 268,
      "ed": 269,
      "▁–": 270,
      "ran": 271,
      "▁Jahr": 272,
      "▁Aus": 273,
      "rie": 274,
      "▁ihr": 275,
      "arb": 276,
      "▁ent": 277,
      "la": 278,
      "aben": 279,
      "fü": 280,
      "tet": 281,
      "liche": 282,
      "▁unter": 283,
      "ler": 284,
      "eiter": 285,
      "ang": 286,
      "▁Ab": 287,
      "▁a": 288,
      "ische": 289,
      "igen": 290,
      "eiten": 291,
      "▁Der": 292,
      "che": 293,
      "▁Sp": 294,
      "ist": 295,
      "og": 296,
      "lie": 297,
      "▁zum": 298,
      "▁Mit": 299,
      "est": 300,
      "keit": 301,
      "ück": 302,
      "▁wur": 303,
      "▁3": 304,
      "▁einen": 305,
      "zen": 306,
      "▁können": 307,
      "all": 308,
      "gel": 309,
      "pf": 310,
      "▁Al": 311,
      "schen": 312,
      "auf": 313,
      "▁am": 314,
      "rund": 315,
      "▁Das": 316,
      "uch": 317,
      "rau": 318,
      "geb": 319,
      "▁Ber": 320,
      "▁kann": 321,
      "▁einem": 322,
      "▁ab": 323,
      "heit": 324,
      "uss": 325,
      "eut": 326,
      "art": 327,
      "rag": 328,
      "ati": 329,
      "ick": 330,
      "▁-": 331,
      "▁19": 332,
      "elt": 333,
      "lin": 334,
      "iert": 335,
      "chn": 336,
      "▁Vor": 337,
      "äl": 338,
      "ert": 339,
      "pp": 340,
      "ieren": 341,
      "eben": 342,
      "ken": 343,
      "ess": 344,
      "dern": 345,
      "glich": 346,
      "▁war": 347,
      "▁Ihr": 348,
      "her": 349,
      "atz": 350,
      "ige": 351,
      "ste": 352,
      "▁bis": 353,
      "ähr": 354,
      "▁haben": 355,
      "anz": 356,
      "bar": 357,
      "ges": 358,
      "ehmen": 359,
      "▁201": 360,
      "bt": 361,
      "ffen": 362,
      "▁da": 363,
      "ehen": 364,
      "▁Daten": 365,
      "schl": 366,
      "ahl": 367,
      "rü": 368,
      "iz": 369,
      "hl": 370,
      "form": 371,
      "▁Auf": 372,
      "rit": 373,
      "we": 374,
      "▁ander": 375,
      "▁nur": 376,
      "ner": 377,
      "alt": 378,
      "ass": 379,
      "eine": 380,
      "hen": 381,
      "▁ber": 382,
      "20": 383,
      "ktion": 384,
      "ster": 385,
      "▁dies": 386,
      "▁mehr": 387,
      "acht": 388,
      "ok": 389,
      "▁unser": 390,
      "du": 391,
      "nis": 392,
      "▁Im": 393,
      "eb": 394,
      "ild": 395,
      "▁wurde": 396,
      "wie": 397,
      "me": 398,
      "iv": 399,
      "ob": 400,
      "▁Zu": 401,
      "▁Ma": 402,
      "ommen": 403,
      "sam": 404,
      "▁Kon": 405,
      "bl": 406,
      "ant": 407,
      "▁4": 408,
      "▁re": 409,
      "▁sp": 410,
      "fahr": 411,
      "▁Um": 412,
      "erson": 413,
      "▁man": 414,
      "ial": 415,
      "ss": 416,
      "▁Ges": 417,
      "ität": 418,
      "▁dar": 419,
      "▁Au": 420,
      "eits": 421,
      "ap": 422,
      "▁Wir": 423,
      "fen": 424,
      "kl": 425,
      "assen": 426,
      "gr": 427,
      "öglich": 428,
      "▁ges": 429,
      "kti": 430,
      "mit": 431,
      "▁noch": 432,
      "▁Arb": 433,
      "ekt": 434,
      "▁5": 435,
      "ill": 436,
      "▁Ent": 437,
      "fol": 438,
      "eich": 439,
      "lung": 440,
      "▁weiter": 441,
      "omm": 442,
      "▁So": 443,
      "ht": 444,
      "führ": 445,
      "▁neu": 446,
      "▁e": 447,
      "üt": 448,
      "ßen": 449,
      "pl": 450,
      "ic": 451,
      "unden": 452,
      "▁vom": 453,
      "gem": 454,
      "ord": 455,
      "imm": 456,
      "nah": 457,
      "▁aber": 458,
      "▁Es": 459,
      "lä": 460,
      "dig": 461,
      "ierung": 462,
      "▁Men": 463,
      "▁diese": 464,
      "▁Ü": 465,
      "eigen": 466,
      "▁r": 467,
      "▁Bei": 468,
      "bst": 469,
      "▁je": 470,
      "fer": 471,
      "▁soll": 472,
      "ationen": 473,
      "▁\"": 474,
      "ud": 475,
      "▁wenn": 476,
      "mal": 477,
      "▁bes": 478,
      "per": 479,
      "▁Nach": 480,
      "etzt": 481,
      ").": 482,
      "att": 483,
      "onder": 484,
      "adt": 485,
      "ark": 486,
      "ze": 487,
      "elle": 488,
      "▁bet": 489,
      "▁gen": 490,
      "▁best": 491,
      "▁Unter": 492,
      "▁Zeit": 493,
      "▁Deut": 494,
      "ühr": 495,
      "ne": 496,
      "schie": 497,
      "▁all": 498,
      "zei": 499,
      "od": 500,
      "▁eines": 501,
      "pt": 502,
      "▁6": 503,
      "▁Über": 504,
      "icher": 505,
      "▁Land": 506,
      "teil": 507,
      "dem": 508,
      "▁Her": 509,
      "▁hin": 510,
      "▁dieser": 511,
      "tigen": 512,
      "▁uns": 513,
      "▁sowie": 514,
      "▁Gesch": 515,
      "halten": 516,
      "sb": 517,
      "▁gegen": 518,
      "wend": 519,
      "▁Or": 520,
      "▁Bet": 521,
      "äch": 522,
      "wick": 523,
      "stän": 524,
      "kte": 525,
      "▁zw": 526,
      "ternehmen": 527,
      "leich": 528,
      "inder": 529,
      "ellen": 530,
      "ohn": 531,
      "),": 532,
      "fe": 533,
      "ho": 534,
      "stand": 535,
      "ast": 536,
      "eld": 537,
      "zeit": 538,
      "öff": 539,
      "innen": 540,
      "ragen": 541,
      "ße": 542,
      "ibt": 543,
      "▁gew": 544,
      "...": 545,
      "id": 546,
      "▁kon": 547,
      "gan": 548,
      "rin": 549,
      "▁For": 550,
      "fl": 551,
      "ma": 552,
      "pro": 553,
      "iele": 554,
      "▁Kl": 555,
      "▁Eur": 556,
      "issen": 557,
      "trag": 558,
      "sche": 559,
      "elbst": 560,
      "üs": 561,
      "abe": 562,
      "vers": 563,
      "eist": 564,
      "vor": 565,
      "urg": 566,
      "▁Menschen": 567,
      "▁hier": 568,
      "hnen": 569,
      "▁202": 570,
      "ßer": 571,
      "▁et": 572,
      "ale": 573,
      "eite": 574,
      "schutz": 575,
      "▁Grund": 576,
      "gesch": 577,
      "▁gem": 578,
      "yst": 579,
      "weise": 580,
      "inden": 581,
      "gung": 582,
      "▁Leben": 583,
      "reis": 584,
      "alen": 585,
      "bau": 586,
      "arbeit": 587,
      "▁0": 588,
      "▁gro": 589,
      "▁Person": 590,
      "reich": 591,
      "ogen": 592,
      "▁gibt": 593,
      "ktiv": 594,
      "undes": 595,
      "▁Te": 596,
      "ften": 597,
      "ak": 598,
      "olog": 599,
      "qu": 600,
      "fall": 601,
      "spiel": 602,
      "satz": 603,
      "zt": 604,
      "achen": 605,
      "▁Gr": 606,
      "gend": 607,
      "▁7": 608,
      "eln": 609,
      "si": 610,
      "amm": 611,
      "▁zwei": 612,
      "▁Unternehmen": 613,
      "zial": 614,
      "age": 615,
      "▁kl": 616,
      "▁Recht": 617,
      "mittel": 618,
      "ystem": 619,
      "iger": 620,
      "ha": 621,
      "▁her": 622,
      "▁Bl": 623,
      "▁lie": 624,
      "ts": 625,
      "tige": 626,
      "inn": 627,
      "zent": 628,
      "rank": 629,
      "ativ": 630,
      "eg": 631,
      "▁wieder": 632,
      "▁8": 633,
      "▁200": 634,
      "▁Inform": 635,
      "osten": 636,
      "▁jed": 637,
      "wir": 638,
      "▁Wer": 639,
      "▁alle": 640,
      "▁ihre": 641,
      "eht": 642,
      "olit": 643,
      "ia": 644,
      "lan": 645,
      "land": 646,
      "ech": 647,
      "tschaft": 648,
      "▁Th": 649,
      "geben": 650,
      "▁Ch": 651,
      "▁Was": 652,
      "▁9": 653,
      "▁ich": 654,
      "▁Q": 655,
      "setz": 656,
      "los": 657,
      "amit": 658,
      "▁Mar": 659,
      "min": 660,
      "▁keine": 661,
      "atur": 662,
      "▁immer": 663,
      "sk": 664,
      "ov": 665,
      "ichtig": 666,
      "gang": 667,
      "richt": 668,
      "1.": 669,
      "▁Stadt": 670,
      "....": 671,
      "▁sehr": 672,
      "dr": 673,
      "hne": 674,
      "schland": 675,
      "ienst": 676,
      "war": 677,
      "lu": 678,
      "schei": 679,
      "▁dann": 680,
      "▁eigen": 681,
      "recht": 682,
      "lage": 683,
      "einen": 684,
      "▁viel": 685,
      "▁Bau": 686,
      "▁Bundes": 687,
      "olle": 688,
      "▁Teil": 689,
      "▁wurden": 690,
      "▁müs": 691,
      "äh": 692,
      "fahren": 693,
      "forder": 694,
      "off": 695,
      "ollen": 696,
      "▁Se": 697,
      "ding": 698,
      "stellung": 699,
      "▁deut": 700,
      "enden": 701,
      "öl": 702,
      "▁son": 703,
      "rechen": 704,
      "abei": 705,
      "▁Web": 706,
      "▁Qu": 707,
      "öffent": 708,
      "ition": 709,
      "▁le": 710,
      "▁was": 711,
      "keiten": 712,
      "▁10": 713,
      "ium": 714,
      "▁diesem": 715,
      "wa": 716,
      "▁18": 717,
      "▁Geb": 718,
      "oren": 719,
      "ta": 720,
      "▁verb": 721,
      "ke": 722,
      "licher": 723,
      "▁Arbeit": 724,
      "▁Reg": 725,
      "▁Verb": 726,
      "▁ger": 727,
      "eim": 728,
      "▁wel": 729,
      "lo": 730,
      "ult": 731,
      "esse": 732,
      "▁Deutschland": 733,
      "äu": 734,
      "tier": 735,
      "ate": 736,
      "ierte": 737,
      "igkeit": 738,
      "ichte": 739,
      "▁zwischen": 740,
      "▁anderen": 741,
      "▁Jahren": 742,
      "halb": 743,
      "zeu": 744,
      "omp": 745,
      "tr": 746,
      "amt": 747,
      "lau": 748,
      "klär": 749,
      "▁(1": 750,
      "ats": 751,
      "▁pro": 752,
      "ohl": 753,
      "▁Wie": 754,
      "▁Am": 755,
      "▁Eine": 756,
      "halt": 757,
      "itz": 758,
      "ischer": 759,
      "▁Diese": 760,
      "zie": 761,
      "rieb": 762,
      "▁Ger": 763,
      "rupp": 764,
      "ard": 765,
      "▁§": 766,
      "stellt": 767,
      "ahn": 768,
      "bild": 769,
      "essen": 770,
      "zogen": 771,
      "ält": 772,
      "cken": 773,
      "rach": 774,
      "▁Ihre": 775,
      "ww": 776,
      "enz": 777,
      "glie": 778,
      "änder": 779,
      "chte": 780,
      "▁selbst": 781,
      "äß": 782,
      "▁Nutz": 783,
      "▁De": 784,
      "▁Hand": 785,
      "reu": 786,
      "▁Bes": 787,
      "grund": 788,
      "licht": 789,
      "tem": 790,
      "▁Intern": 791,
      "wort": 792,
      "stellen": 793,
      "▁ange": 794,
      "▁Ö": 795,
      "aut": 796,
      "io": 797,
      "▁müssen": 798,
      "kommen": 799,
      "▁Kinder": 800,
      "▁Zus": 801,
      "schieden": 802,
      "▁Für": 803,
      "▁Mon": 804,
      "▁muss": 805,
      "ließ": 806,
      "ett": 807,
      "nahme": 808,
      "mus": 809,
      "▁gesch": 810,
      "##": 811,
      "ös": 812,
      "2.": 813,
      "burg": 814,
      "▁c": 815,
      "cher": 816,
      "ost": 817,
      "sst": 818,
      "ank": 819,
      "stüt": 820,
      "ünd": 821,
      "▁Welt": 822,
      "▁seine": 823,
      "ele": 824,
      "▁Med": 825,
      "ammen": 826,
      "esen": 827,
      "äd": 828,
      "▁Gem": 829,
      "euer": 830,
      "our": 831,
      "▁erfol": 832,
      "gie": 833,
      "walt": 834,
      "tik": 835,
      "▁ausge": 836,
      "kann": 837,
      "berg": 838,
      "▁möglich": 839,
      "▁damit": 840,
      "zw": 841,
      "▁Produ": 842,
      "ce": 843,
      "tag": 844,
      "▁Besch": 845,
      "▁sei": 846,
      "eute": 847,
      "▁ohne": 848,
      "▁Informationen": 849,
      "▁Wenn": 850,
      "oh": 851,
      "nung": 852,
      "“,": 853,
      "▁Inter": 854,
      "lagen": 855,
      "▁bereits": 856,
      "äft": 857,
      "▁Art": 858,
      "ätz": 859,
      "▁Br": 860,
      "agen": 861,
      "fte": 862,
      "aupt": 863,
      "kon": 864,
      "sicht": 865,
      "▁Ur": 866,
      "▁Ju": 867,
      "▁führ": 868,
      "▁Da": 869,
      "ow": 870,
      "▁beim": 871,
      "fach": 872,
      "000": 873,
      "ail": 874,
      "▁Mus": 875,
      "▁15": 876,
      "▁Pf": 877,
      "ph": 878,
      "▁Jahre": 879,
      "▁Auch": 880,
      "▁Stra": 881,
      "__": 882,
      "für": 883,
      "▁jedoch": 884,
      "hör": 885,
      "▁/": 886,
      "▁gr": 887,
      "▁Dies": 888,
      "oten": 889,
      "ktu": 890,
      "201": 891,
      "▁besch": 892,
      "▁Aut": 893,
      "ander": 894,
      "if": 895,
      "▁sondern": 896,
      "ay": 897,
      "äm": 898,
      "▁Vers": 899,
      "▁Dr": 900,
      "▁Rei": 901,
      "▁seit": 902,
      "mb": 903,
      "▁beg": 904,
      "ip": 905,
      "unkt": 906,
      "ine": 907,
      "▁Ex": 908,
      "reichen": 909,
      "ielen": 910,
      "▁ihrer": 911,
      "▁&": 912,
      "▁bie": 913,
      "▁Abs": 914,
      "▁seiner": 915,
      "ionen": 916,
      "roffen": 917,
      "▁1.": 918,
      "▁schon": 919,
      "kehr": 920,
      "örder": 921,
      "ook": 922,
      "▁wen": 923,
      "▁Uhr": 924,
      "▁gel": 925,
      "▁|": 926,
      "tigt": 927,
      "ruch": 928,
      "ierten": 929,
      "▁neue": 930,
      "was": 931,
      "ährend": 932,
      "amil": 933,
      "ron": 934,
      "nte": 935,
      "ruck": 936,
      "▁ob": 937,
      "ker": 938,
      "▁Bild": 939,
      "ellschaft": 940,
      "▁[": 941,
      "▁Stud": 942,
      "▁viele": 943,
      "arten": 944,
      "iss": 945,
      "auer": 946,
      "St": 947,
      "▁besonder": 948,
      "hält": 949,
      "zahl": 950,
      "ks": 951,
      "nahmen": 952,
      "hö": 953,
      "enten": 954,
      "ac": 955,
      "In": 956,
      "pr": 957,
      "gri": 958,
      "wert": 959,
      "inanz": 960,
      "hän": 961,
      "▁Frau": 962,
      "▁Ä": 963,
      "gl": 964,
      "ultur": 965,
      "▁Arbeits": 966,
      "▁Tag": 967,
      "rad": 968,
      "prä": 969,
      "unktion": 970,
      "▁Pl": 971,
      "aden": 972,
      "zeichn": 973,
      "äuf": 974,
      "▁ganz": 975,
      "▁einz": 976,
      "▁verschieden": 977,
      "3.": 978,
      "orden": 979,
      "▁Durch": 980,
      "▁Europ": 981,
      "▁Komm": 982,
      "alis": 983,
      "sprechen": 984,
      "jekt": 985,
      "▁mö": 986,
      "rage": 987,
      "stalt": 988,
      "ider": 989,
      "▁Ihnen": 990,
      "▁finden": 991,
      "▁Ne": 992,
      "ständ": 993,
      "▁Ste": 994,
      "▁Man": 995,
      "▁bef": 996,
      "ritt": 997,
      "nisse": 998,
      "tre": 999,
      "kten": 1000,
      "▁Sta": 1001,
      "ald": 1002,
      "ian": 1003,
      "mann": 1004,
      "▁El": 1005,
      "▁Neu": 1006,
      "▁Fahr": 1007,
      "kun": 1008,
      "tt": 1009,
      "hin": 1010,
      "▁Weiter": 1011,
      "bezogen": 1012,
      "rum": 1013,
      "stra": 1014,
      "gabe": 1015,
      "▁Beh": 1016,
      "arbeitung": 1017,
      "▁zurück": 1018,
      "arbeiten": 1019,
      "unde": 1020,
      "▁unserer": 1021,
      "rat": 1022,
      "▁Them": 1023,
      "▁andere": 1024,
      "▁Zusammen": 1025,
      "wicklung": 1026,
      "anden": 1027,
      "haus": 1028,
      "▁Lebens": 1029,
      "fäl": 1030,
      "▁All": 1031,
      "▁Gemein": 1032,
      "▁Min": 1033,
      "gaben": 1034,
      "ichten": 1035,
      "▁aller": 1036,
      "ust": 1037,
      "sel": 1038,
      "▁Gen": 1039,
      "alität": 1040,
      "line": 1041,
      "▁Wei": 1042,
      "▁erst": 1043,
      "▁Hin": 1044,
      "▁Internet": 1045,
      "amen": 1046,
      "olgen": 1047,
      "bung": 1048,
      "▁ins": 1049,
      "itu": 1050,
      "ersonen": 1051,
      "alten": 1052,
      "icherheit": 1053,
      "igung": 1054,
      "zug": 1055,
      "▁Part": 1056,
      "ivers": 1057,
      "ater": 1058,
      "iet": 1059,
      "▁14": 1060,
      "▁Mitglie": 1061,
      "▁Bür": 1062,
      "scheid": 1063,
      "man": 1064,
      "fern": 1065,
      "▁Haus": 1066,
      "▁Frei": 1067,
      "leist": 1068,
      "▁17": 1069,
      "▁US": 1070,
      "ister": 1071,
      "▁Dar": 1072,
      "isten": 1073,
      "ER": 1074,
      "ule": 1075,
      "kunft": 1076,
      "ktur": 1077,
      "▁Geschäft": 1078,
      "stimm": 1079,
      "obil": 1080,
      "▁16": 1081,
      "ange": 1082,
      "▁dabei": 1083,
      "hil": 1084,
      "ies": 1085,
      "ade": 1086,
      "▁sol": 1087,
      "neh": 1088,
      "ül": 1089,
      "▁Möglich": 1090,
      "so": 1091,
      "antwort": 1092,
      "▁Kunden": 1093,
      "blem": 1094,
      "hol": 1095,
      "ember": 1096,
      "gleich": 1097,
      "issenschaft": 1098,
      "▁Berlin": 1099,
      "▁Lie": 1100,
      "ganis": 1101,
      "▁Euro": 1102,
      "▁Schl": 1103,
      "indet": 1104,
      "▁Hier": 1105,
      "ahmen": 1106,
      "▁drei": 1107,
      "br": 1108,
      "je": 1109,
      "▁hatte": 1110,
      "▁sollte": 1111,
      "▁waren": 1112,
      "▁dazu": 1113,
      "stoff": 1114,
      "hm": 1115,
      "uten": 1116,
      "▁fest": 1117,
      "▁de": 1118,
      "seite": 1119,
      "▁diesen": 1120,
      "▁Wohn": 1121,
      "▁gut": 1122,
      "falls": 1123,
      "ähl": 1124,
      "▁Fl": 1125,
      "▁unsere": 1126,
      "verb": 1127,
      "schaften": 1128,
      "unter": 1129,
      "werk": 1130,
      "äre": 1131,
      "▁Verein": 1132,
      "rift": 1133,
      "ende": 1134,
      "▁Fall": 1135,
      "19": 1136,
      "▁eben": 1137,
      "undheit": 1138,
      "rän": 1139,
      "▁Wasser": 1140,
      "▁geht": 1141,
      "▁Sti": 1142,
      "▁ersten": 1143,
      "▁Regel": 1144,
      "raum": 1145,
      "gän": 1146,
      "ven": 1147,
      "▁einge": 1148,
      "ive": 1149,
      "▁komm": 1150,
      "ations": 1151,
      "net": 1152,
      "uchen": 1153,
      "ym": 1154,
      "ünst": 1155,
      "▁dieses": 1156,
      "▁machen": 1157,
      "▁Schul": 1158,
      "▁zusam": 1159,
      "▁Prozent": 1160,
      "rist": 1161,
      "riv": 1162,
      "ünf": 1163,
      "ergie": 1164,
      "▁Ha": 1165,
      "urz": 1166,
      "▁zusammen": 1167,
      "▁Rück": 1168,
      "lichkeit": 1169,
      "▁Schw": 1170,
      "▁ihren": 1171,
      "▁kein": 1172,
      "aum": 1173,
      "▁Fach": 1174,
      ".0": 1175,
      "ätig": 1176,
      "weg": 1177,
      "ock": 1178,
      "▁personen": 1179,
      "ps": 1180,
      "els": 1181,
      "▁Rechts": 1182,
      "asse": 1183,
      "chten": 1184,
      "▁sicher": 1185,
      "▁personenbezogen": 1186,
      "stehen": 1187,
      "▁199": 1188,
      "nit": 1189,
      "ren": 1190,
      "▁gef": 1191,
      "▁kommen": 1192,
      "▁Gew": 1193,
      "weit": 1194,
      "▁Leist": 1195,
      "▁Rahmen": 1196,
      "▁Famil": 1197,
      "▁bzw": 1198,
      "are": 1199,
      "sätz": 1200,
      "▁Gro": 1201,
      "▁gest": 1202,
      "techn": 1203,
      "örper": 1204,
      "punkt": 1205,
      "▁neuen": 1206,
      "▁heute": 1207,
      "olitik": 1208,
      "▁gehör": 1209,
      "griff": 1210,
      "ziel": 1211,
      "▁Und": 1212,
      "ilt": 1213,
      "▁Ser": 1214,
      "▁Le": 1215,
      "▁allem": 1216,
      "legen": 1217,
      "eter": 1218,
      "igit": 1219,
      "Mail": 1220,
      "arbeiter": 1221,
      "▁gemein": 1222,
      "ub": 1223,
      "▁lei": 1224,
      "hand": 1225,
      "▁welche": 1226,
      "▁wichtig": 1227,
      "schied": 1228,
      "wohl": 1229,
      "▁Datenschutz": 1230,
      "▁beh": 1231,
      "ologie": 1232,
      "▁etwa": 1233,
      "▁Dienst": 1234,
      "achsen": 1235,
      "yp": 1236,
      "raft": 1237,
      "schluss": 1238,
      "▁Stel": 1239,
      "10": 1240,
      "▁Ho": 1241,
      "mbH": 1242,
      "führt": 1243,
      "ennt": 1244,
      "▁Mill": 1245,
      "schließ": 1246,
      "eig": 1247,
      "▁aktu": 1248,
      "orf": 1249,
      "▁schn": 1250,
      "▁ex": 1251,
      "▁Inst": 1252,
      "▁steht": 1253,
      "▁letz": 1254,
      "▁gilt": 1255,
      "ingen": 1256,
      "▁»": 1257,
      "weil": 1258,
      "▁also": 1259,
      "ober": 1260,
      "▁denn": 1261,
      "eile": 1262,
      "▁Stand": 1263,
      "ute": 1264,
      "spruch": 1265,
      "▁jeder": 1266,
      "30": 1267,
      "▁statt": 1268,
      "▁erhalten": 1269,
      "▁12": 1270,
      "▁ben": 1271,
      "▁30": 1272,
      "▁verl": 1273,
      "az": 1274,
      "▁lassen": 1275,
      "bet": 1276,
      ".“": 1277,
      "▁einfach": 1278,
      "▁während": 1279,
      "kannt": 1280,
      "ftrag": 1281,
      "▁Spiel": 1282,
      "ational": 1283,
      "sf": 1284,
      "gangen": 1285,
      "eitung": 1286,
      "▁Landes": 1287,
      "▁EU": 1288,
      "//": 1289,
      "▁grö": 1290,
      "aher": 1291,
      "fang": 1292,
      "üss": 1293,
      "▁Chr": 1294,
      "arl": 1295,
      "üd": 1296,
      "▁On": 1297,
      "weis": 1298,
      "▁GmbH": 1299,
      "▁Lin": 1300,
      "▁nun": 1301,
      "ack": 1302,
      "▁denen": 1303,
      "achten": 1304,
      "irekt": 1305,
      "▁recht": 1306,
      "aly": 1307,
      "▁2.": 1308,
      "ufen": 1309,
      "▁Kir": 1310,
      "▁habe": 1311,
      "▁blei": 1312,
      "site": 1313,
      "ide": 1314,
      "gar": 1315,
      "isk": 1316,
      "EN": 1317,
      "▁frei": 1318,
      "▁entsprechen": 1319,
      "▁Lu": 1320,
      "tiert": 1321,
      "ondere": 1322,
      "herap": 1323,
      "mäß": 1324,
      "▁Bo": 1325,
      "rüf": 1326,
      "▁Prä": 1327,
      "lungs": 1328,
      "lauf": 1329,
      "▁of": 1330,
      "rieben": 1331,
      "▁en": 1332,
      "▁weitere": 1333,
      "rom": 1334,
      "▁verw": 1335,
      "://": 1336,
      "sy": 1337,
      "gesetz": 1338,
      "▁Di": 1339,
      "von": 1340,
      "▁Jugend": 1341,
      "lt": 1342,
      "ite": 1343,
      "▁Vertrag": 1344,
      "▁gleich": 1345,
      "▁Form": 1346,
      "möglich": 1347,
      "ßnahmen": 1348,
      "sbes": 1349,
      "atür": 1350,
      "ens": 1351,
      "ruppe": 1352,
      "▁The": 1353,
      "geber": 1354,
      "ringen": 1355,
      "▁Pol": 1356,
      "ott": 1357,
      "welt": 1358,
      "▁betroffen": 1359,
      "▁Mo": 1360,
      "lex": 1361,
      "org": 1362,
      "▁liegt": 1363,
      "▁nie": 1364,
      "ichts": 1365,
      "▁Son": 1366,
      "gew": 1367,
      "▁Energie": 1368,
      "uer": 1369,
      "▁Prof": 1370,
      "lossen": 1371,
      "▁bestimm": 1372,
      "▁Ziel": 1373,
      "mö": 1374,
      "änger": 1375,
      "unst": 1376,
      "▁Als": 1377,
      "trä": 1378,
      "zieh": 1379,
      "heim": 1380,
      "▁ho": 1381,
      "▁vers": 1382,
      "▁Hö": 1383,
      "▁Mär": 1384,
      "inde": 1385,
      "setzung": 1386,
      "▁wür": 1387,
      "stens": 1388,
      "▁Wirtschaft": 1389,
      "▁Haupt": 1390,
      "▁Go": 1391,
      "urt": 1392,
      "rot": 1393,
      "als": 1394,
      "asst": 1395,
      "nten": 1396,
      "▁seinen": 1397,
      "ere": 1398,
      "gement": 1399,
      "esser": 1400,
      "gramm": 1401,
      "mei": 1402,
      "ative": 1403,
      "▁Mittel": 1404,
      "▁Buch": 1405,
      "reg": 1406,
      "äten": 1407,
      "bie": 1408,
      "An": 1409,
      "▁25": 1410,
      "▁Gegen": 1411,
      "▁Beispiel": 1412,
      "stadt": 1413,
      "▁Website": 1414,
      "ib": 1415,
      "▁sag": 1416,
      "▁Su": 1417,
      "kung": 1418,
      "▁Ende": 1419,
      "führung": 1420,
      "glichen": 1421,
      "▁Kosten": 1422,
      "dent": 1423,
      "▁rund": 1424,
      "▁voll": 1425,
      "ordnung": 1426,
      "sbesondere": 1427,
      "ruktur": 1428,
      "▁War": 1429,
      "▁Techn": 1430,
      "umen": 1431,
      "▁Personen": 1432,
      "ersön": 1433,
      "........": 1434,
      "▁stell": 1435,
      "deut": 1436,
      "nehmen": 1437,
      "▁Univers": 1438,
      "▁Ort": 1439,
      "▁stehen": 1440,
      "ochen": 1441,
      "▁Gesundheit": 1442,
      "gegen": 1443,
      "▁Bürger": 1444,
      "agement": 1445,
      "▁sollten": 1446,
      "lege": 1447,
      "anstalt": 1448,
      "▁allen": 1449,
      "▁deren": 1450,
      "▁kommt": 1451,
      "▁Sicherheit": 1452,
      "fül": 1453,
      "▁Zahl": 1454,
      "heiten": 1455,
      "frei": 1456,
      "wor": 1457,
      "ose": 1458,
      "gestellt": 1459,
      "▁Forsch": 1460,
      "schein": 1461,
      "▁jeweil": 1462,
      "ubl": 1463,
      "▁Problem": 1464,
      "äter": 1465,
      "▁for": 1466,
      "weck": 1467,
      "▁Ober": 1468,
      "▁2022": 1469,
      "▁em": 1470,
      "itzen": 1471,
      "ice": 1472,
      "urs": 1473,
      "▁Beit": 1474,
      "ote": 1475,
      "▁öffent": 1476,
      "▁Hil": 1477,
      "gemein": 1478,
      "▁Geschäfts": 1479,
      "uß": 1480,
      "beh": 1481,
      "▁Beruf": 1482,
      "jahr": 1483,
      "zer": 1484,
      "▁Y": 1485,
      "eitet": 1486,
      "▁hand": 1487,
      "▁dafür": 1488,
      "▁darauf": 1489,
      "ug": 1490,
      "kauf": 1491,
      "bildung": 1492,
      "mar": 1493,
      "▁Ihrer": 1494,
      "af": 1495,
      "202": 1496,
      "▁Em": 1497,
      "ters": 1498,
      "sweise": 1499,
      "▁(2": 1500,
      "▁we": 1501,
      "▁Betrieb": 1502,
      "▁etwas": 1503,
      "▁Gl": 1504,
      "▁Hoch": 1505,
      "▁entwick": 1506,
      "▁Mitarbeiter": 1507,
      "▁Projekt": 1508,
      "--": 1509,
      "▁wo": 1510,
      "zung": 1511,
      "izin": 1512,
      "assung": 1513,
      "▁unterstüt": 1514,
      "▁hö": 1515,
      "▁Eigen": 1516,
      "▁“": 1517,
      "▁gemeinsam": 1518,
      "raf": 1519,
      "ismus": 1520,
      "eilen": 1521,
      "▁Fil": 1522,
      "▁...": 1523,
      "▁inner": 1524,
      "▁folgen": 1525,
      "Ver": 1526,
      ".000": 1527,
      "jähr": 1528,
      "▁erforder": 1529,
      "▁Frauen": 1530,
      "▁Bereich": 1531,
      "nehmer": 1532,
      "▁Natur": 1533,
      "rieg": 1534,
      "ans": 1535,
      "str": 1536,
      "▁htt": 1537,
      "com": 1538,
      "dings": 1539,
      "▁per": 1540,
      "ahlen": 1541,
      "lungen": 1542,
      "▁Mün": 1543,
      "▁geb": 1544,
      "ändern": 1545,
      "allen": 1546,
      "▁Angeb": 1547,
      "▁System": 1548,
      "wendung": 1549,
      "▁Verarbeitung": 1550,
      "▁Ich": 1551,
      "▁lang": 1552,
      "ranken": 1553,
      "tikel": 1554,
      "Sch": 1555,
      "ris": 1556,
      "▁Grün": 1557,
      "anzen": 1558,
      "▁bietet": 1559,
      "▁11": 1560,
      "▁Cor": 1561,
      "ucht": 1562,
      "▁weil": 1563,
      "“.": 1564,
      "▁Verfü": 1565,
      "xt": 1566,
      "takt": 1567,
      "▁außer": 1568,
      "▁Jan": 1569,
      "▁inter": 1570,
      "▁Mehr": 1571,
      "▁2020": 1572,
      "erk": 1573,
      "▁schnell": 1574,
      "▁teil": 1575,
      "zess": 1576,
      "ome": 1577,
      "▁Entwicklung": 1578,
      "amp": 1579,
      "ichtet": 1580,
      "klärung": 1581,
      "▁Frank": 1582,
      "▁Sa": 1583,
      "▁Entscheid": 1584,
      "ogle": 1585,
      "▁Kunst": 1586,
      "werb": 1587,
      "red": 1588,
      "voll": 1589,
      "ständig": 1590,
      "▁Online": 1591,
      "▁wich": 1592,
      "▁Des": 1593,
      "▁Pr": 1594,
      "treten": 1595,
      "gesetzt": 1596,
      "▁Lehr": 1597,
      "▁eigenen": 1598,
      "vest": 1599,
      "ign": 1600,
      "▁nutz": 1601,
      "zeug": 1602,
      "hof": 1603,
      "gehen": 1604,
      "▁Fot": 1605,
      "einander": 1606,
      "▁bel": 1607,
      "▁13": 1608,
      "▁oft": 1609,
      "häng": 1610,
      "genommen": 1611,
      "▁Dem": 1612,
      "▁2021": 1613,
      "yn": 1614,
      "▁Gesetz": 1615,
      "4.": 1616,
      "fon": 1617,
      "ina": 1618,
      "▁Met": 1619,
      "dingungen": 1620,
      "▁Selbst": 1621,
      "sl": 1622,
      "rain": 1623,
      "▁sozial": 1624,
      "▁Von": 1625,
      "▁dort": 1626,
      "icherung": 1627,
      "iere": 1628,
      "will": 1629,
      "▁vielen": 1630,
      "sw": 1631,
      "stag": 1632,
      "ruppen": 1633,
      "ierungs": 1634,
      "üler": 1635,
      "einer": 1636,
      "▁Kultur": 1637,
      "GB": 1638,
      "eiß": 1639,
      "old": 1640,
      "legt": 1641,
      "reiben": 1642,
      "▁Schutz": 1643,
      "▁Einsatz": 1644,
      "▁worden": 1645,
      "▁Tran": 1646,
      "▁natür": 1647,
      "sver": 1648,
      "scher": 1649,
      "▁März": 1650,
      "änd": 1651,
      "▁Par": 1652,
      "ätze": 1653,
      "▁besteht": 1654,
      "▁einmal": 1655,
      "sterreich": 1656,
      "aler": 1657,
      "▁Seite": 1658,
      "▁Str": 1659,
      "▁letzten": 1660,
      "▁Geschichte": 1661,
      "▁eh": 1662,
      "▁bede": 1663,
      "▁erfolg": 1664,
      "▁besonders": 1665,
      "dar": 1666,
      "▁intern": 1667,
      "eigt": 1668,
      "affen": 1669,
      "feld": 1670,
      "▁Möglichkeit": 1671,
      "▁Ob": 1672,
      "▁Me": 1673,
      "schnit": 1674,
      "▁.": 1675,
      "otwend": 1676,
      "ath": 1677,
      "▁Thema": 1678,
      "▁Weg": 1679,
      "th": 1680,
      "wendet": 1681,
      "▁Frage": 1682,
      "co": 1683,
      "indung": 1684,
      "▁verfü": 1685,
      "▁frü": 1686,
      "▁Finanz": 1687,
      "ona": 1688,
      "▁insbesondere": 1689,
      "urop": 1690,
      "▁Förder": 1691,
      "▁Sport": 1692,
      "akt": 1693,
      "uni": 1694,
      "▁Lei": 1695,
      "ager": 1696,
      "▁Sozial": 1697,
      "elten": 1698,
      "▁the": 1699,
      "▁seinem": 1700,
      "wand": 1701,
      "▁Kommun": 1702,
      "lug": 1703,
      "▁hoch": 1704,
      "▁Den": 1705,
      "▁Wider": 1706,
      "liches": 1707,
      "▁unterschied": 1708,
      "▁Vol": 1709,
      "▁offen": 1710,
      "stein": 1711,
      "▁Co": 1712,
      "▁zun": 1713,
      "spe": 1714,
      "Die": 1715,
      "▁Besuch": 1716,
      "äf": 1717,
      "etzen": 1718,
      "iff": 1719,
      "▁abge": 1720,
      "wirtschaft": 1721,
      "dienst": 1722,
      "▁Dabei": 1723,
      "druck": 1724,
      "orgen": 1725,
      "▁Jul": 1726,
      "▁Gesellschaft": 1727,
      "▁Verantwort": 1728,
      "▁hinaus": 1729,
      "ächst": 1730,
      "ator": 1731,
      "▁Fest": 1732,
      "▁3.": 1733,
      "▁Ergeb": 1734,
      "ieder": 1735,
      "▁Ph": 1736,
      "plan": 1737,
      ":00": 1738,
      "▁einige": 1739,
      "liegen": 1740,
      "teilung": 1741,
      "tif": 1742,
      "CH": 1743,
      "isches": 1744,
      "läss": 1745,
      "ache": 1746,
      "▁Markt": 1747,
      "▁Fr": 1748,
      "▁Kontakt": 1749,
      "▁erklär": 1750,
      "reise": 1751,
      "sych": 1752,
      "▁ung": 1753,
      "tiger": 1754,
      "▁große": 1755,
      "ipp": 1756,
      "▁jetzt": 1757,
      "ys": 1758,
      "▁Pati": 1759,
      "▁We": 1760,
      "▁Ter": 1761,
      "▁besser": 1762,
      "▁New": 1763,
      "▁du": 1764,
      "▁Nov": 1765,
      "arbeitet": 1766,
      "50": 1767,
      "aktion": 1768,
      "▁Neben": 1769,
      "▁Vort": 1770,
      "▁Imm": 1771,
      "istor": 1772,
      "blick": 1773,
      "IN": 1774,
      "▁Bel": 1775,
      "▁Mark": 1776,
      "▁davon": 1777,
      "ity": 1778,
      "6.": 1779,
      "▁häuf": 1780,
      "▁2019": 1781,
      "kungen": 1782,
      "____": 1783,
      "▁ihm": 1784,
      "undert": 1785,
      "▁Verfügung": 1786,
      "ure": 1787,
      "bei": 1788,
      "uter": 1789,
      "▁polit": 1790,
      ".,": 1791,
      "zü": 1792,
      "▁Nutzung": 1793,
      "▁großen": 1794,
      "eten": 1795,
      "▁Cook": 1796,
      "▁ern": 1797,
      "▁Unser": 1798,
      "▁Geld": 1799,
      "äus": 1800,
      "▁Christ": 1801,
      "▁Schüler": 1802,
      "▁Ro": 1803,
      "eren": 1804,
      "ration": 1805,
      "zel": 1806,
      "▁Kap": 1807,
      "leben": 1808,
      "▁gelten": 1809,
      "itäten": 1810,
      "▁Musik": 1811,
      "ivi": 1812,
      "tiv": 1813,
      "▁Ad": 1814,
      "▁gegenüber": 1815,
      "▁daher": 1816,
      "▁Aug": 1817,
      "weisen": 1818,
      "▁aufge": 1819,
      "laub": 1820,
      "▁wollen": 1821,
      "alter": 1822,
      "▁Mai": 1823,
      "system": 1824,
      "minister": 1825,
      "reiche": 1826,
      "ücks": 1827,
      "schule": 1828,
      "▁Körper": 1829,
      "7.": 1830,
      "ffiz": 1831,
      "angen": 1832,
      "▁Denn": 1833,
      "▁ch": 1834,
      "▁sehen": 1835,
      "rax": 1836,
      "▁Ben": 1837,
      "▁198": 1838,
      "ore": 1839,
      "▁will": 1840,
      "▁Erk": 1841,
      "pti": 1842,
      "pflich": 1843,
      "▁Aber": 1844,
      "▁Funktion": 1845,
      "▁genann": 1846,
      "▁persön": 1847,
      "tember": 1848,
      "uar": 1849,
      "▁geben": 1850,
      "8.": 1851,
      "scheiden": 1852,
      "sol": 1853,
      "▁Fragen": 1854,
      "▁Artikel": 1855,
      "▁ind": 1856,
      "▁Frie": 1857,
      "▁%": 1858,
      "▁km": 1859,
      "üb": 1860,
      "▁sollen": 1861,
      "▁or": 1862,
      "▁erste": 1863,
      "ftung": 1864,
      "eichen": 1865,
      "tragen": 1866,
      "baren": 1867,
      "ikation": 1868,
      "▁Wahl": 1869,
      "▁beiden": 1870,
      "halte": 1871,
      "ase": 1872,
      "bereich": 1873,
      "tieren": 1874,
      "sätzlich": 1875,
      "▁Behand": 1876,
      "ommer": 1877,
      "▁stark": 1878,
      "rik": 1879,
      "wohn": 1880,
      "herapie": 1881,
      "▁Google": 1882,
      "▁beispiel": 1883,
      "▁Verl": 1884,
      "▁Je": 1885,
      "▁Zukunft": 1886,
      "ax": 1887,
      "▁spe": 1888,
      "arr": 1889,
      "▁vier": 1890,
      "stau": 1891,
      "▁innerhalb": 1892,
      "▁konnte": 1893,
      "▁50": 1894,
      "▁zahl": 1895,
      "ären": 1896,
      "▁gesetz": 1897,
      "▁Groß": 1898,
      "▁Juni": 1899,
      "▁schwer": 1900,
      "▁Okt": 1901,
      "▁gesp": 1902,
      "▁Klim": 1903,
      "▁Millionen": 1904,
      "▁Sep": 1905,
      "▁u": 1906,
      "▁ihn": 1907,
      "forderungen": 1908,
      "▁aufgrund": 1909,
      "isik": 1910,
      "Pro": 1911,
      "▁Zweck": 1912,
      "ungsver": 1913,
      "to": 1914,
      "▁verst": 1915,
      "▁Auftrag": 1916,
      "ielt": 1917,
      "folg": 1918,
      "reffen": 1919,
      "▁Wert": 1920,
      "▁verschiedenen": 1921,
      "ähn": 1922,
      "schw": 1923,
      "ungsk": 1924,
      "inter": 1925,
      "ital": 1926,
      "SG": 1927,
      "▁Schwei": 1928,
      "▁mei": 1929,
      "hein": 1930,
      "immt": 1931,
      "▁Unterstüt": 1932,
      "etter": 1933,
      "▁Plan": 1934,
      "▁2023": 1935,
      "leg": 1936,
      "ksam": 1937,
      "▁empf": 1938,
      "▁ihrem": 1939,
      "inger": 1940,
      "entr": 1941,
      "-1": 1942,
      "▁verwendet": 1943,
      "9.": 1944,
      "ruf": 1945,
      "ffe": 1946,
      "terial": 1947,
      "flä": 1948,
      "cker": 1949,
      "tigkeit": 1950,
      "orn": 1951,
      "▁ihnen": 1952,
      "▁später": 1953,
      "▁Komp": 1954,
      "▁regel": 1955,
      "▁100": 1956,
      "▁Kam": 1957,
      "▁Erfahr": 1958,
      "▁Nr": 1959,
      "▁Zur": 1960,
      "▁alles": 1961,
      "▁Oktober": 1962,
      "▁Steuer": 1963,
      "▁Universität": 1964,
      "zeitig": 1965,
      "▁Viel": 1966,
      "sor": 1967,
      "▁Jahres": 1968,
      "▁Arch": 1969,
      "▁Januar": 1970,
      "zeichnet": 1971,
      "▁Apr": 1972,
      "▁Mitglied": 1973,
      "ählt": 1974,
      "▁Netz": 1975,
      "▁erfolgt": 1976,
      "ividu": 1977,
      "▁Ant": 1978,
      "▁führen": 1979,
      "▁stellen": 1980,
      "▁sogar": 1981,
      "dien": 1982,
      "▁doch": 1983,
      "▁Veranstalt": 1984,
      "anken": 1985,
      "olf": 1986,
      "omati": 1987,
      "äischen": 1988,
      "ranz": 1989,
      "▁dür": 1990,
      "▁Con": 1991,
      "eum": 1992,
      "▁lä": 1993,
      "▁beispielsweise": 1994,
      "ware": 1995,
      "▁September": 1996,
      "▁bekannt": 1997,
      "opp": 1998,
      "▁mo": 1999,
      "ausen": 2000,
      "▁ebenfalls": 2001,
      "rauch": 2002,
      "one": 2003,
      "www": 2004,
      "▁schw": 2005,
      "▁Medien": 2006,
      "erst": 2007,
      "▁Nord": 2008,
      "des": 2009,
      "▁techn": 2010,
      "▁mich": 2011,
      "▁USA": 2012,
      "▁bieten": 2013,
      "▁Du": 2014,
      "▁macht": 2015,
      "reifen": 2016,
      "▁Dez": 2017,
      "▁mus": 2018,
      "▁Bas": 2019,
      "erne": 2020,
      "▁Vert": 2021,
      "VO": 2022,
      "alle": 2023,
      "inen": 2024,
      "ament": 2025,
      "▁€": 2026,
      "▁Maßnahmen": 2027,
      "ilder": 2028,
      "▁Ham": 2029,
      "vice": 2030,
      "emen": 2031,
      "▁Hol": 2032,
      "▁and": 2033,
      "digung": 2034,
      "▁Region": 2035,
      "▁leben": 2036,
      "▁Ko": 2037,
      "anten": 2038,
      "▁Beg": 2039,
      "▁el": 2040,
      "etten": 2041,
      "na": 2042,
      "ire": 2043,
      "▁Bi": 2044,
      "▁notwend": 2045,
      "▁2018": 2046,
      "stellungen": 2047,
      "▁wegen": 2048,
      "▁groß": 2049,
      "▁Tele": 2050,
      "▁Ihren": 2051,
      "▁Jahrh": 2052,
      "raxis": 2053,
      "tlich": 2054,
      "zip": 2055,
      "üh": 2056,
      "äum": 2057,
      "▁Raum": 2058,
      "▁November": 2059,
      "ehn": 2060,
      "▁II": 2061,
      "▁unseren": 2062,
      "▁umf": 2063,
      "▁Pflege": 2064,
      "▁Ele": 2065,
      "▁Politik": 2066,
      "ölker": 2067,
      "ublik": 2068,
      "▁April": 2069,
      "lig": 2070,
      "mals": 2071,
      "▁deutlich": 2072,
      "av": 2073,
      "▁Geh": 2074,
      "ennen": 2075,
      "schließlich": 2076,
      "▁könnte": 2077,
      "ritten": 2078,
      "▁inform": 2079,
      "▁Mann": 2080,
      "gesamt": 2081,
      "▁findet": 2082,
      "▁Preis": 2083,
      "▁Beitrag": 2084,
      "▁Seit": 2085,
      "▁genau": 2086,
      "rigen": 2087,
      "▁deutschen": 2088,
      "▁Verkehr": 2089,
      "ame": 2090,
      "emie": 2091,
      "teg": 2092,
      "▁Kind": 2093,
      "▁stellt": 2094,
      "▁weniger": 2095,
      "rakti": 2096,
      "▁Juli": 2097,
      "tischen": 2098,
      "▁weit": 2099,
      "duz": 2100,
      "▁einzel": 2101,
      "▁direkt": 2102,
      "▁Risik": 2103,
      "äte": 2104,
      "straße": 2105,
      "▁Per": 2106,
      "▁Fre": 2107,
      "▁Einzel": 2108,
      "sent": 2109,
      "osition": 2110,
      "▁https": 2111,
      "öffentlicht": 2112,
      "▁Nieder": 2113,
      "▁Lös": 2114,
      "▁heraus": 2115,
      "zept": 2116,
      "reicht": 2117,
      "▁Höhe": 2118,
      "utter": 2119,
      "▁lässt": 2120,
      "▁Umwelt": 2121,
      "bel": 2122,
      "darf": 2123,
      "ins": 2124,
      "rech": 2125,
      "steller": 2126,
      "▁Seiten": 2127,
      "▁Familien": 2128,
      "▁Feb": 2129,
      "rotz": 2130,
      "▁verm": 2131,
      "▁Wochen": 2132,
      "eien": 2133,
      "▁Sol": 2134,
      "▁Team": 2135,
      "ings": 2136,
      "▁Start": 2137,
      "▁Fäl": 2138,
      "hang": 2139,
      "▁He": 2140,
      "bare": 2141,
      "daten": 2142,
      "igt": 2143,
      "▁Organis": 2144,
      "ählen": 2145,
      "enzen": 2146,
      "▁Fol": 2147,
      "▁Führ": 2148,
      "▁Ern": 2149,
      "ient": 2150,
      "aufen": 2151,
      "ission": 2152,
      "omit": 2153,
      "▁benö": 2154,
      "▁Dezember": 2155,
      "ment": 2156,
      "▁darüber": 2157,
      "ließen": 2158,
      "▁Ihrem": 2159,
      "▁digit": 2160,
      "▁+": 2161,
      "schung": 2162,
      "führer": 2163,
      "####": 2164,
      "schul": 2165,
      "fäh": 2166,
      "▁größ": 2167,
      "hilfe": 2168,
      "▁prä": 2169,
      "▁wahr": 2170,
      "rüfung": 2171,
      "▁4.": 2172,
      "▁Mod": 2173,
      "▁24": 2174,
      "▁aut": 2175,
      "ruar": 2176,
      "▁www": 2177,
      "ulen": 2178,
      "▁unbe": 2179,
      "ativen": 2180,
      "▁allerdings": 2181,
      "▁Hei": 2182,
      "mitt": 2183,
      "▁zeigt": 2184,
      "▁gesam": 2185,
      "5.": 2186,
      "dresse": 2187,
      "▁August": 2188,
      "▁Kranken": 2189,
      "▁Zum": 2190,
      "▁Wor": 2191,
      "arm": 2192,
      "ets": 2193,
      "▁Richt": 2194,
      "▁Doch": 2195,
      "frist": 2196,
      "iter": 2197,
      "▁Film": 2198,
      "cen": 2199,
      "Un": 2200,
      "scht": 2201,
      "\",": 2202,
      "tische": 2203,
      "▁sowohl": 2204,
      "▁gehen": 2205,
      "pflicht": 2206,
      "▁Platz": 2207,
      "▁Februar": 2208,
      "äude": 2209,
      "samm": 2210,
      "bach": 2211,
      "▁Zwei": 2212,
      "▁Eltern": 2213,
      "▁Corona": 2214,
      "platz": 2215,
      "▁häufig": 2216,
      "utet": 2217,
      "ond": 2218,
      "▁Alle": 2219,
      "usst": 2220,
      "frage": 2221,
      "uren": 2222,
      "rache": 2223,
      "izei": 2224,
      "such": 2225,
      "schlag": 2226,
      "▁Än": 2227,
      "zuf": 2228,
      "▁erhö": 2229,
      "aren": 2230,
      "gericht": 2231,
      "▁Patienten": 2232,
      "▁näch": 2233,
      "stück": 2234,
      "räge": 2235,
      "▁2017": 2236,
      "sta": 2237,
      "ession": 2238,
      "▁nutzen": 2239,
      "▁«": 2240,
      "▁197": 2241,
      "11": 2242,
      "mäßig": 2243,
      "ritte": 2244,
      "▁kurz": 2245,
      "▁Bro": 2246,
      "▁Kin": 2247,
      "elfen": 2248,
      "sport": 2249,
      "):": 2250,
      "ände": 2251,
      "▁Mal": 2252,
      "under": 2253,
      "▁kom": 2254,
      "riften": 2255,
      "▁handelt": 2256,
      "▁Ka": 2257,
      "▁erforderlich": 2258,
      "stimmung": 2259,
      "wiesen": 2260,
      "▁At": 2261,
      "hältnis": 2262,
      "fort": 2263,
      "immer": 2264,
      "▁Qualität": 2265,
      "▁Fir": 2266,
      "▁führt": 2267,
      "▁Herr": 2268,
      "▁Nicht": 2269,
      "tigung": 2270,
      "ieg": 2271,
      "deck": 2272,
      "▁nehmen": 2273,
      "hop": 2274,
      "echn": 2275,
      "gründ": 2276,
      "statt": 2277,
      "stelle": 2278,
      "▁würde": 2279,
      "▁Europa": 2280,
      "▁reg": 2281,
      "mm": 2282,
      "schrift": 2283,
      "sident": 2284,
      "kel": 2285,
      "▁Verfahren": 2286,
      "▁Mitglieder": 2287,
      "opf": 2288,
      "▁neben": 2289,
      "▁Gemeinde": 2290,
      "wahl": 2291,
      "▁Dieser": 2292,
      "▁Werk": 2293,
      "▁Liefer": 2294,
      "▁jeden": 2295,
      "wehr": 2296,
      "kreis": 2297,
      "▁Kn": 2298,
      "▁San": 2299,
      "port": 2300,
      "2,": 2301,
      "▁Män": 2302,
      "▁Jahrhundert": 2303,
      "▁grund": 2304,
      "ämpf": 2305,
      "▁Weise": 2306,
      "buch": 2307,
      "eller": 2308,
      "▁möchte": 2309,
      "▁bisher": 2310,
      "▁lange": 2311,
      "adurch": 2312,
      "iti": 2313,
      "itte": 2314,
      "gor": 2315,
      "▁Blick": 2316,
      "steuer": 2317,
      "ituation": 2318,
      "leistungen": 2319,
      "genann": 2320,
      "▁meisten": 2321,
      "ationalen": 2322,
      "▁Hilfe": 2323,
      "▁Ru": 2324,
      "fin": 2325,
      "▁bew": 2326,
      "edizin": 2327,
      "abhäng": 2328,
      "▁gar": 2329,
      "▁wäre": 2330,
      "▁hät": 2331,
      "▁Gener": 2332,
      "▁Flug": 2333,
      "▁Partner": 2334,
      "spr": 2335,
      "drück": 2336,
      "▁verein": 2337,
      "zus": 2338,
      "dung": 2339,
      "3,": 2340,
      "AN": 2341,
      "▁München": 2342,
      "▁Unterstützung": 2343,
      "▁Res": 2344,
      "▁ö": 2345,
      "▁Satz": 2346,
      "▁zwar": 2347,
      "▁Frü": 2348,
      "bo": 2349,
      "▁Elekt": 2350,
      "▁kosten": 2351,
      "▁Öff": 2352,
      "▁verschiedene": 2353,
      "▁Ide": 2354,
      "▁Bay": 2355,
      "geschlossen": 2356,
      "itel": 2357,
      "▁2016": 2358,
      "▁nah": 2359,
      "fo": 2360,
      "▁Verwalt": 2361,
      "▁weiteren": 2362,
      "-,": 2363,
      "▁Vide": 2364,
      "▁Cookies": 2365,
      "▁gab": 2366,
      "▁Reise": 2367,
      "▁bestehen": 2368,
      "▁Namen": 2369,
      "▁Kön": 2370,
      "▁Sen": 2371,
      "▁Wissenschaft": 2372,
      "▁Tr": 2373,
      "▁mir": 2374,
      "nach": 2375,
      "arte": 2376,
      "mitteln": 2377,
      "▁Gott": 2378,
      "barkeit": 2379,
      "itut": 2380,
      "▁gehört": 2381,
      "▁ersch": 2382,
      "inne": 2383,
      "artner": 2384,
      "arch": 2385,
      "othe": 2386,
      "oph": 2387,
      "jekte": 2388,
      "▁Kauf": 2389,
      "▁Fer": 2390,
      "bedingungen": 2391,
      "▁gemacht": 2392,
      "▁Studien": 2393,
      "ette": 2394,
      "▁App": 2395,
      "▁gerade": 2396,
      "krä": 2397,
      "200": 2398,
      "esent": 2399,
      "ummer": 2400,
      "▁Staat": 2401,
      "▁Luft": 2402,
      "ES": 2403,
      "ons": 2404,
      "▁Bedeut": 2405,
      "par": 2406,
      "pen": 2407,
      "ühren": 2408,
      "schnitt": 2409,
      "atung": 2410,
      "▁Österreich": 2411,
      "▁Rad": 2412,
      "▁dessen": 2413,
      "▁vert": 2414,
      "▁besten": 2415,
      "▁Antrag": 2416,
      "Ar": 2417,
      "▁Rolle": 2418,
      "▁angeb": 2419,
      "▁Kat": 2420,
      "▁aktiv": 2421,
      "markt": 2422,
      "ix": 2423,
      "▁Ange": 2424,
      "▁welt": 2425,
      "reten": 2426,
      "▁Immobil": 2427,
      "▁Ev": 2428,
      "osit": 2429,
      "besch": 2430,
      "▁Themen": 2431,
      "cke": 2432,
      "rich": 2433,
      "bes": 2434,
      "PD": 2435,
      "1,": 2436,
      "▁Deutschen": 2437,
      "▁Angebot": 2438,
      "▁höher": 2439,
      "▁Entscheidung": 2440,
      "meister": 2441,
      "▁Priv": 2442,
      "▁Fern": 2443,
      "▁erf": 2444,
      "▁Invest": 2445,
      "▁unserem": 2446,
      "▁fünf": 2447,
      "bieter": 2448,
      "setzen": 2449,
      "▁bleiben": 2450,
      "▁Kom": 2451,
      "▁40": 2452,
      "▁fast": 2453,
      "ienen": 2454,
      "▁Damit": 2455,
      "dür": 2456,
      "▁Änder": 2457,
      "▁X": 2458,
      "grün": 2459,
      "▁Krieg": 2460,
      "richtung": 2461,
      "▁helfen": 2462,
      "▁brau": 2463,
      "▁Kü": 2464,
      "▁Sk": 2465,
      "orm": 2466,
      "▁solche": 2467,
      "▁Herz": 2468,
      "▁1,": 2469,
      "ikan": 2470,
      "ächlich": 2471,
      "eichert": 2472,
      "gliche": 2473,
      "ernen": 2474,
      "▁Süd": 2475,
      "ance": 2476,
      "...]": 2477,
      "▁Voraus": 2478,
      "zep": 2479,
      "▁Analy": 2480,
      "teilt": 2481,
      "echs": 2482,
      "hei": 2483,
      "15": 2484,
      "▁hatten": 2485,
      "▁Familie": 2486,
      "sitzen": 2487,
      "▁Außer": 2488,
      "▁tun": 2489,
      "atten": 2490,
      "▁2015": 2491,
      "▁Unternehmens": 2492,
      "spro": 2493,
      "up": 2494,
      "▁möchten": 2495,
      "iegel": 2496,
      "geführt": 2497,
      "▁Lage": 2498,
      "▁5.": 2499,
      "ktionen": 2500,
      "alz": 2501,
      "wasser": 2502,
      "▁individu": 2503,
      "▁Bedeutung": 2504,
      "▁keinen": 2505,
      "▁anderem": 2506,
      "unkte": 2507,
      "zustellen": 2508,
      "▁gemäß": 2509,
      "▁Klima": 2510,
      "▁gute": 2511,
      "▁gegeben": 2512,
      "▁sogenann": 2513,
      "oper": 2514,
      "▁wenig": 2515,
      "iges": 2516,
      "▁bleibt": 2517,
      "▁on": 2518,
      "▁europ": 2519,
      "▁gewähr": 2520,
      "komm": 2521,
      "redit": 2522,
      "▁Aktiv": 2523,
      "▁Ak": 2524,
      "ause": 2525,
      "ehlen": 2526,
      "schriften": 2527,
      "▁bereit": 2528,
      "alisierung": 2529,
      "▁hinter": 2530,
      "ct": 2531,
      "▁Fuß": 2532,
      "▁unver": 2533,
      "▁liegen": 2534,
      "gern": 2535,
      "▁bedeutet": 2536,
      "völker": 2537,
      "mo": 2538,
      "gruppe": 2539,
      "▁interess": 2540,
      "▁nichts": 2541,
      "langen": 2542,
      "▁Produkt": 2543,
      "utt": 2544,
      "oche": 2545,
      "40": 2546,
      "▁Erfolg": 2547,
      "rägt": 2548,
      "▁Nutzer": 2549,
      "▁Test": 2550,
      "▁eigene": 2551,
      "▁Mil": 2552,
      "igkeiten": 2553,
      "▁Gesamt": 2554,
      "▁[...]": 2555,
      "ftware": 2556,
      "ont": 2557,
      "tionen": 2558,
      "60": 2559,
      "▁Spe": 2560,
      "▁entscheiden": 2561,
      "▁Erw": 2562,
      "ünstler": 2563,
      "▁Behandlung": 2564,
      "haft": 2565,
      "angeb": 2566,
      "▁Wien": 2567,
      "▁Staats": 2568,
      "▁Kraft": 2569,
      "mögen": 2570,
      "▁Gel": 2571,
      "▁ca": 2572,
      "▁mehrere": 2573,
      "▁Gleich": 2574,
      "▁Heraus": 2575,
      "haltung": 2576,
      "▁natürlich": 2577,
      "▁Not": 2578,
      "▁Kreis": 2579,
      "12": 2580,
      "▁opti": 2581,
      "▁sagte": 2582,
      "ebook": 2583,
      "▁Fac": 2584,
      "▁Krank": 2585,
      "gst": 2586,
      "fil": 2587,
      "ile": 2588,
      "▁Heil": 2589,
      "▁entst": 2590,
      "ument": 2591,
      "▁Blut": 2592,
      "erklärung": 2593,
      "utzt": 2594,
      "radition": 2595,
      "lassen": 2596,
      "tens": 2597,
      "met": 2598,
      "ormal": 2599,
      "nov": 2600,
      "sbe": 2601,
      "▁sagt": 2602,
      "▁get": 2603,
      "ool": 2604,
      "▁Zw": 2605,
      "▁Kirche": 2606,
      "18": 2607,
      "onnen": 2608,
      "racht": 2609,
      "fel": 2610,
      "orgung": 2611,
      "folge": 2612,
      "fluss": 2613,
      "hren": 2614,
      "▁Indu": 2615,
      "▁finanz": 2616,
      "▁beein": 2617,
      "ategor": 2618,
      "▁priv": 2619,
      "lass": 2620,
      "▁Bü": 2621,
      "auft": 2622,
      "▁Sitz": 2623,
      "ehm": 2624,
      "▁Programm": 2625,
      "verband": 2626,
      "▁Produkte": 2627,
      "▁Lö": 2628,
      "▁(19": 2629,
      "ches": 2630,
      "ilden": 2631,
      "▁Anspruch": 2632,
      "▁Polizei": 2633,
      "richten": 2634,
      "abil": 2635,
      "IT": 2636,
      "▁qu": 2637,
      "▁Nacht": 2638,
      "struktur": 2639,
      "ziehen": 2640,
      "▁Inhalte": 2641,
      "▁Interessen": 2642,
      "▁Hinter": 2643,
      "3)": 2644,
      "▁2014": 2645,
      "oc": 2646,
      "▁gl": 2647,
      "▁darf": 2648,
      "49": 2649,
      "▁Inf": 2650,
      "▁Zusammenhang": 2651,
      "sprü": 2652,
      "▁Tage": 2653,
      "sichtlich": 2654,
      "▁wirk": 2655,
      "▁zunächst": 2656,
      "▁verbesser": 2657,
      "▁Pfl": 2658,
      "tigten": 2659,
      "▁gehören": 2660,
      "sehen": 2661,
      "▁Digit": 2662,
      "▁Tür": 2663,
      "dürf": 2664,
      "nei": 2665,
      ".)": 2666,
      "halts": 2667,
      "▁Weitere": 2668,
      "▁stär": 2669,
      "▁prof": 2670,
      "dorf": 2671,
      "▁Mich": 2672,
      "ätigkeit": 2673,
      "▁Eben": 2674,
      "ücken": 2675,
      "Be": 2676,
      "produ": 2677,
      "▁mittel": 2678,
      "▁verbunden": 2679,
      "bahn": 2680,
      "▁AG": 2681,
      "zeiten": 2682,
      "▁Tour": 2683,
      "furt": 2684,
      "▁Material": 2685,
      "▁Wel": 2686,
      "iken": 2687,
      "zte": 2688,
      "▁Exper": 2689,
      "▁And": 2690,
      "▁Möglichkeiten": 2691,
      "aß": 2692,
      "unk": 2693,
      "ex": 2694,
      "▁wei": 2695,
      "▁Wissen": 2696,
      "iste": 2697,
      "elig": 2698,
      "ou": 2699,
      "wech": 2700,
      "leichen": 2701,
      "▁fol": 2702,
      "bin": 2703,
      "▁elekt": 2704,
      "richtungen": 2705,
      "▁arbeiten": 2706,
      "▁sonst": 2707,
      "nungs": 2708,
      "▁zie": 2709,
      "▁Interesse": 2710,
      "AT": 2711,
      "▁(1)": 2712,
      "eicher": 2713,
      "▁Gast": 2714,
      "▁größer": 2715,
      "schuss": 2716,
      "▁Telefon": 2717,
      "▁Anfang": 2718,
      "tifiz": 2719,
      "▁öffentlichen": 2720,
      "▁Praxis": 2721,
      "stände": 2722,
      "▁Wahr": 2723,
      "last": 2724,
      "▁Fort": 2725,
      "schau": 2726,
      "▁Post": 2727,
      "ek": 2728,
      "▁Dan": 2729,
      "▁wissen": 2730,
      "wär": 2731,
      "45": 2732,
      "▁erreichen": 2733,
      "lö": 2734,
      "ichtigen": 2735,
      "agn": 2736,
      "▁Während": 2737,
      "▁Sommer": 2738,
      "ief": 2739,
      "ettbe": 2740,
      "▁Park": 2741,
      "echt": 2742,
      "ari": 2743,
      "akter": 2744,
      "▁Forschungs": 2745,
      "yr": 2746,
      "▁hervor": 2747,
      "▁Sach": 2748,
      "agt": 2749,
      "lang": 2750,
      "fft": 2751,
      "▁wohl": 2752,
      "▁Vergleich": 2753,
      "kosten": 2754,
      "▁mein": 2755,
      "wirkungen": 2756,
      "▁Hotel": 2757,
      "▁Boden": 2758,
      "▁Rat": 2759,
      "setzungen": 2760,
      "bs": 2761,
      "laden": 2762,
      "▁Heim": 2763,
      "▁Außerdem": 2764,
      "▁Leistungen": 2765,
      "weiter": 2766,
      "▁Eng": 2767,
      "▁daß": 2768,
      "▁te": 2769,
      "läger": 2770,
      "Sp": 2771,
      "▁dürfen": 2772,
      "▁Strom": 2773,
      "▁unterstützen": 2774,
      "verein": 2775,
      "▁Schule": 2776,
      "▁verpflich": 2777,
      "▁verwenden": 2778,
      "ätzen": 2779,
      "ight": 2780,
      "ums": 2781,
      "▁Unsere": 2782,
      "leicht": 2783,
      "IS": 2784,
      "▁Mein": 2785,
      "▁kam": 2786,
      "ograf": 2787,
      "▁konnten": 2788,
      "▁Eis": 2789,
      "▁minde": 2790,
      "kün": 2791,
      "AR": 2792,
      "▁Folgen": 2793,
      "▁heiß": 2794,
      "▁jeweils": 2795,
      "igten": 2796,
      "▁Entwick": 2797,
      "alien": 2798,
      "spl": 2799,
      "▁König": 2800,
      "iker": 2801,
      "▁Stunden": 2802,
      "▁mindestens": 2803,
      "▁Produktion": 2804,
      "prü": 2805,
      "▁6.": 2806,
      "leb": 2807,
      "▁wirtschaft": 2808,
      "▁Disk": 2809,
      "▁wider": 2810,
      "ändert": 2811,
      "haupt": 2812,
      "schrei": 2813,
      "▁zeigen": 2814,
      "▁jederzeit": 2815,
      "gesehen": 2816,
      "versicherung": 2817,
      "▁Bran": 2818,
      "amer": 2819,
      "verständ": 2820,
      "▁insgesamt": 2821,
      "geh": 2822,
      "hoben": 2823,
      "▁berech": 2824,
      "▁Köl": 2825,
      "ützen": 2826,
      "▁automati": 2827,
      "▁Wieder": 2828,
      "Adresse": 2829,
      "▁Empf": 2830,
      "zentrum": 2831,
      "▁Sinne": 2832,
      "▁erhe": 2833,
      "▁Bar": 2834,
      "6,": 2835,
      "▁deshalb": 2836,
      "▁Dazu": 2837,
      "▁60": 2838,
      "kennen": 2839,
      "▁Städ": 2840,
      "gangenen": 2841,
      "▁Gra": 2842,
      "▁somit": 2843,
      "▁Tod": 2844,
      "inst": 2845,
      "▁gespeichert": 2846,
      "itter": 2847,
      "▁vorh": 2848,
      "▁Tier": 2849,
      "gebiet": 2850,
      "ball": 2851,
      "2-": 2852,
      "öffentlich": 2853,
      "▁Hamburg": 2854,
      "rem": 2855,
      "▁Gebäude": 2856,
      "▁West": 2857,
      "itär": 2858,
      "17": 2859,
      "▁Aufgaben": 2860,
      "rop": 2861,
      "äden": 2862,
      "gebung": 2863,
      "▁Autor": 2864,
      "▁tä": 2865,
      "istischen": 2866,
      "▁entwickelt": 2867,
      "gemeinen": 2868,
      "tete": 2869,
      "▁komp": 2870,
      "▁Grundlage": 2871,
      "sto": 2872,
      "bert": 2873,
      "▁zudem": 2874,
      "ry": 2875,
      "▁Verwendung": 2876,
      "▁geeig": 2877,
      "det": 2878,
      "sammlung": 2879,
      "▁üb": 2880,
      "▁indem": 2881,
      "▁Vorstand": 2882,
      "▁Situation": 2883,
      "▁Kläger": 2884,
      "▁Dok": 2885,
      "▁Comp": 2886,
      "▁Feuer": 2887,
      "▁Ergebnis": 2888,
      "ationale": 2889,
      "▁fort": 2890,
      "▁jedem": 2891,
      "▁betroffenen": 2892,
      "mel": 2893,
      "▁Versicher": 2894,
      "gien": 2895,
      "▁La": 2896,
      "▁Bund": 2897,
      "preis": 2898,
      "▁Begriff": 2899,
      "▁Wil": 2900,
      "wertung": 2901,
      "▁Lauf": 2902,
      "▁Alter": 2903,
      "▁tats": 2904,
      "▁halten": 2905,
      "▁anzu": 2906,
      "▁Bevölker": 2907,
      "gn": 2908,
      "ca": 2909,
      "▁befindet": 2910,
      "▁Tages": 2911,
      "▁Schwer": 2912,
      "▁Kindern": 2913,
      "4,": 2914,
      "▁jeweiligen": 2915,
      "iew": 2916,
      "Wir": 2917,
      "▁Zudem": 2918,
      "gesellschaft": 2919,
      "▁meist": 2920,
      "etzung": 2921,
      "▁Beschwer": 2922,
      "wür": 2923,
      "▁Krit": 2924,
      "wser": 2925,
      "................": 2926,
      "▁Ins": 2927,
      "▁Gesprä": 2928,
      "▁Voll": 2929,
      "ktive": 2930,
      "▁erwar": 2931,
      "iven": 2932,
      "▁Rechn": 2933,
      "▁Zusammenarbeit": 2934,
      "----": 2935,
      "möglichen": 2936,
      "▁zeit": 2937,
      "▁histor": 2938,
      "▁end": 2939,
      "▁Augen": 2940,
      "▁posit": 2941,
      "vertrag": 2942,
      "▁National": 2943,
      "9,": 2944,
      "oss": 2945,
      "▁Don": 2946,
      "▁Bad": 2947,
      "▁Fällen": 2948,
      "UN": 2949,
      "▁Dat": 2950,
      "▁aktuellen": 2951,
      "▁Immobilien": 2952,
      "▁gerne": 2953,
      "▁kleine": 2954,
      "stoffe": 2955,
      "▁Li": 2956,
      "immen": 2957,
      "vol": 2958,
      "tisch": 2959,
      "▁Folge": 2960,
      "▁Ol": 2961,
      "ossen": 2962,
      "▁kleinen": 2963,
      "8,": 2964,
      "▁enthalten": 2965,
      "vis": 2966,
      "▁bevor": 2967,
      "▁Ist": 2968,
      "▁>": 2969,
      "25": 2970,
      "▁ermöglich": 2971,
      "kr": 2972,
      "▁betroffene": 2973,
      "SGVO": 2974,
      "▁Druck": 2975,
      "ese": 2976,
      "test": 2977,
      "▁Foto": 2978,
      "ain": 2979,
      "di": 2980,
      "▁Dieses": 2981,
      "gef": 2982,
      "▁Tem": 2983,
      "meld": 2984,
      "asen": 2985,
      "▁bringen": 2986,
      "ppen": 2987,
      "ziehung": 2988,
      "ehl": 2989,
      "▁nächsten": 2990,
      "▁Indust": 2991,
      "▁unterstützt": 2992,
      "üsse": 2993,
      "▁196": 2994,
      "räum": 2995,
      "▁Haut": 2996,
      "abl": 2997,
      "▁Russ": 2998,
      "▁erfül": 2999,
      "▁Wald": 3000,
      "▁Holz": 3001,
      "▁Alt": 3002,
      "eting": 3003,
      "▁Nä": 3004,
      "öhn": 3005,
      "klag": 3006,
      "▁ähn": 3007,
      "urger": 3008,
      "▁Aller": 3009,
      "▁10.": 3010,
      "7,": 3011,
      "tler": 3012,
      "▁Gut": 3013,
      "▁Schaden": 3014,
      "▁Kur": 3015,
      "▁Is": 3016,
      "rise": 3017,
      "▁11.": 3018,
      ".[": 3019,
      "▁dam": 3020,
      "stre": 3021,
      "▁heißt": 3022,
      "▁Mensch": 3023,
      "▁Bis": 3024,
      "digt": 3025,
      "ährung": 3026,
      "▁Bank": 3027,
      "▁weiterhin": 3028,
      "ular": 3029,
      "ka": 3030,
      "▁jede": 3031,
      "Er": 3032,
      "sg": 3033,
      "dete": 3034,
      "▁12.": 3035,
      "alb": 3036,
      "ichter": 3037,
      "▁19.": 3038,
      "geld": 3039,
      "▁erklärt": 3040,
      "▁Untersuch": 3041,
      "▁Facebook": 3042,
      "▁Internetseite": 3043,
      "▁funktion": 3044,
      "▁Bef": 3045,
      "AS": 3046,
      "wegen": 3047,
      "▁Bus": 3048,
      "mehr": 3049,
      "▁klar": 3050,
      "por": 3051,
      "del": 3052,
      "▁Urteil": 3053,
      "verkehr": 3054,
      "▁Schlag": 3055,
      "▁CO": 3056,
      "▁daran": 3057,
      "▁Darüber": 3058,
      "▁Gruppe": 3059,
      "ement": 3060,
      "▁Rechte": 3061,
      "▁Ged": 3062,
      "anger": 3063,
      "▁Angaben": 3064,
      "▁Phil": 3065,
      "din": 3066,
      "unge": 3067,
      "sein": 3068,
      "▁Verbindung": 3069,
      "▁erw": 3070,
      "fahrt": 3071,
      "ution": 3072,
      "tliche": 3073,
      "▁Rhein": 3074,
      "▁hohen": 3075,
      "▁wesent": 3076,
      "pfer": 3077,
      "▁folgenden": 3078,
      "▁speziel": 3079,
      "aar": 3080,
      "räger": 3081,
      "▁7.": 3082,
      "inner": 3083,
      "▁Klein": 3084,
      "▁Straße": 3085,
      "▁Rom": 3086,
      "▁Zeitpunkt": 3087,
      "wegung": 3088,
      "ragt": 3089,
      "▁Kar": 3090,
      "▁schön": 3091,
      "verfahren": 3092,
      "▁Ost": 3093,
      "▁Peter": 3094,
      "▁ur": 3095,
      "▁sieht": 3096,
      "kir": 3097,
      "▁leicht": 3098,
      "örden": 3099,
      "▁versch": 3100,
      "zul": 3101,
      "▁setzen": 3102,
      "ettbewerb": 3103,
      "öße": 3104,
      "unternehmen": 3105,
      "enntnis": 3106,
      "▁Stellen": 3107,
      "▁hil": 3108,
      "fühl": 3109,
      "▁erfolgreich": 3110,
      "▁erk": 3111,
      "rauen": 3112,
      "ehler": 3113,
      "eister": 3114,
      "▁Zahn": 3115,
      "tur": 3116,
      "▁Auto": 3117,
      "▁auszu": 3118,
      "▁erfahren": 3119,
      "▁Beginn": 3120,
      "ael": 3121,
      "publik": 3122,
      "▁22": 3123,
      "▁Regierung": 3124,
      "stieg": 3125,
      "ohann": 3126,
      "▁Prozess": 3127,
      "▁Band": 3128,
      "luss": 3129,
      "▁länger": 3130,
      "ließlich": 3131,
      "hard": 3132,
      "äufer": 3133,
      "▁wissenschaft": 3134,
      "▁erhält": 3135,
      "die": 3136,
      "▁Bezug": 3137,
      "wohner": 3138,
      "▁belie": 3139,
      "▁Basis": 3140,
      "stimmungen": 3141,
      "▁Sam": 3142,
      "ika": 3143,
      "▁wichtige": 3144,
      "▁Stelle": 3145,
      "denten": 3146,
      "▁ja": 3147,
      "kra": 3148,
      "emal": 3149,
      "kraft": 3150,
      "▁behand": 3151,
      "▁Benutz": 3152,
      "istische": 3153,
      "▁nachhal": 3154,
      "▁einzu": 3155,
      "▁Text": 3156,
      "▁Schweiz": 3157,
      "wig": 3158,
      "▁Innen": 3159,
      "▁Karl": 3160,
      "▁Psych": 3161,
      "▁Straßen": 3162,
      "▁Erst": 3163,
      "tes": 3164,
      "▁vorhanden": 3165,
      "▁seien": 3166,
      "hel": 3167,
      "▁Leistungs": 3168,
      "▁Veränder": 3169,
      "klus": 3170,
      "▁durchgeführt": 3171,
      "▁Anti": 3172,
      "tell": 3173,
      "▁wirklich": 3174,
      "5,": 3175,
      "ogra": 3176,
      "▁ak": 3177,
      "▁Bildung": 3178,
      "sph": 3179,
      "ox": 3180,
      "amin": 3181,
      "sie": 3182,
      "örde": 3183,
      "16": 3184,
      "ütz": 3185,
      "▁Aktu": 3186,
      ".:": 3187,
      "▁Ind": 3188,
      "ierungen": 3189,
      "▁Viele": 3190,
      "ON": 3191,
      "auftrag": 3192,
      "rankungen": 3193,
      "▁Gef": 3194,
      "tin": 3195,
      "▁8.": 3196,
      "▁oben": 3197,
      "▁Hel": 3198,
      "▁Termin": 3199,
      "atist": 3200,
      "▁Log": 3201,
      "alif": 3202,
      "▁Sc": 3203,
      "▁ermöglicht": 3204,
      "ante": 3205,
      "ennung": 3206,
      "▁mal": 3207,
      "▁Personal": 3208,
      "▁Home": 3209,
      "▁trotz": 3210,
      "▁Op": 3211,
      "▁Garten": 3212,
      "▁Ausbildung": 3213,
      "otor": 3214,
      "vent": 3215,
      "▁20.": 3216,
      "▁zentr": 3217,
      "▁Berg": 3218,
      "▁Reich": 3219,
      "▁Deutsche": 3220,
      "▁einzelnen": 3221,
      "assungs": 3222,
      "▁Train": 3223,
      "züglich": 3224,
      "nehm": 3225,
      "ielle": 3226,
      "80": 3227,
      "4)": 3228,
      "▁eher": 3229,
      "▁zusätz": 3230,
      "regierung": 3231,
      "zeichen": 3232,
      "▁Sicht": 3233,
      "▁2010": 3234,
      "▁Webseite": 3235,
      "reisen": 3236,
      "22": 3237,
      "rifft": 3238,
      "park": 3239,
      "▁Öffent": 3240,
      "▁Privat": 3241,
      "13": 3242,
      "leiter": 3243,
      "▁Kre": 3244,
      "▁höch": 3245,
      "schlä": 3246,
      "lauben": 3247,
      "▁ermöglichen": 3248,
      "▁früher": 3249,
      "▁,": 3250,
      "zif": 3251,
      "▁allein": 3252,
      "▁Pap": 3253,
      "▁vergangenen": 3254,
      "fläche": 3255,
      "ierenden": 3256,
      "inge": 3257,
      "▁Museum": 3258,
      "lingen": 3259,
      "▁Flü": 3260,
      "▁13.": 3261,
      "hung": 3262,
      "▁Probleme": 3263,
      "häus": 3264,
      "ufe": 3265,
      "greifen": 3266,
      "pe": 3267,
      "achst": 3268,
      "isse": 3269,
      "linie": 3270,
      "▁Trans": 3271,
      "▁Port": 3272,
      "▁Johann": 3273,
      "urf": 3274,
      "attform": 3275,
      "reibt": 3276,
      "▁Zugang": 3277,
      "merzen": 3278,
      "▁verk": 3279,
      "press": 3280,
      "ds": 3281,
      "▁Wind": 3282,
      "▁2013": 3283,
      "▁Eigent": 3284,
      "ringt": 3285,
      "rechte": 3286,
      "reiber": 3287,
      "srecht": 3288,
      "reund": 3289,
      "kam": 3290,
      "▁Medizin": 3291,
      "▁UN": 3292,
      "▁Bahn": 3293,
      "raucher": 3294,
      "▁Mag": 3295,
      "erweise": 3296,
      "ranzös": 3297,
      "ew": 3298,
      "troll": 3299,
      "yer": 3300,
      "staltung": 3301,
      "▁DSGVO": 3302,
      "bür": 3303,
      "▁entsp": 3304,
      "ordne": 3305,
      "▁Industrie": 3306,
      "▁Beschäf": 3307,
      "▁Aben": 3308,
      "schinen": 3309,
      "tic": 3310,
      "bew": 3311,
      "▁deutsche": 3312,
      "▁Erd": 3313,
      "omen": 3314,
      "▁IS": 3315,
      "▁ebenso": 3316,
      "▁Liter": 3317,
      "annen": 3318,
      "▁entstehen": 3319,
      "son": 3320,
      "ädag": 3321,
      "▁193": 3322,
      "zeugen": 3323,
      "▁Af": 3324,
      "ologischen": 3325,
      "EL": 3326,
      "atik": 3327,
      "ferenz": 3328,
      "vention": 3329,
      "altet": 3330,
      "▁Risiko": 3331,
      "▁ir": 3332,
      "eiger": 3333,
      "geln": 3334,
      "▁organis": 3335,
      "▁Sym": 3336,
      "▁Verhalten": 3337,
      "▁End": 3338,
      "zir": 3339,
      "▁übern": 3340,
      "▁verantwort": 3341,
      "▁di": 3342,
      "▁Tagen": 3343,
      "▁Är": 3344,
      "mod": 3345,
      "▁Bildungs": 3346,
      "▁Metho": 3347,
      "▁Sh": 3348,
      "▁Bestand": 3349,
      "▁IT": 3350,
      "▁Arbeitgeber": 3351,
      "formen": 3352,
      "▁gestellt": 3353,
      "ko": 3354,
      "üssel": 3355,
      "▁Ländern": 3356,
      "▁Länder": 3357,
      "▁Besonder": 3358,
      "▁Wort": 3359,
      "spar": 3360,
      "▁Maß": 3361,
      "▁Anwendung": 3362,
      "▁hohe": 3363,
      "iellen": 3364,
      "▁würden": 3365,
      "▁Kategor": 3366,
      "▁dadurch": 3367,
      "▁ausschließlich": 3368,
      "ürt": 3369,
      "▁verpflichtet": 3370,
      "▁Kirchen": 3371,
      "chter": 3372,
      "geschichte": 3373,
      "Al": 3374,
      "▁Car": 3375,
      "▁Anforderungen": 3376,
      "▁Einsch": 3377,
      "▁könnten": 3378,
      ".\"": 3379,
      "iums": 3380,
      "▁umfassen": 3381,
      "leistung": 3382,
      "▁Ergebnisse": 3383,
      "▁Europäischen": 3384,
      "lös": 3385,
      "▁23": 3386,
      "rechn": 3387,
      "▁Komment": 3388,
      "ID": 3389,
      "gründet": 3390,
      "▁Besucher": 3391,
      "ollte": 3392,
      "ikt": 3393,
      "▁18.": 3394,
      "bringen": 3395,
      "▁Minuten": 3396,
      "möglichkeiten": 3397,
      "▁Kommunikation": 3398,
      "\".": 3399,
      "▁Abschluss": 3400,
      "▁Winter": 3401,
      "fest": 3402,
      "stät": 3403,
      "zentr": 3404,
      "▁Kün": 3405,
      "▁9.": 3406,
      "isierung": 3407,
      "▁2,": 3408,
      "achung": 3409,
      "▁genutzt": 3410,
      "stellten": 3411,
      "▁Woche": 3412,
      "▁Stre": 3413,
      "▁Waren": 3414,
      "▁kaum": 3415,
      "▁Urs": 3416,
      "▁21": 3417,
      "stru": 3418,
      "peratur": 3419,
      "ling": 3420,
      "own": 3421,
      "▁zweiten": 3422,
      "▁15.": 3423,
      "dro": 3424,
      "ison": 3425,
      "hy": 3426,
      "unsch": 3427,
      "▁verz": 3428,
      "ram": 3429,
      "▁beant": 3430,
      "zig": 3431,
      "ckt": 3432,
      "▁Dort": 3433,
      "▁angem": 3434,
      "▁27": 3435,
      "▁eingesetzt": 3436,
      "▁bestimmten": 3437,
      "ierter": 3438,
      "ehmer": 3439,
      "▁80": 3440,
      "▁Kor": 3441,
      "AG": 3442,
      "loss": 3443,
      "▁Software": 3444,
      "erv": 3445,
      "▁notwendig": 3446,
      "ohlen": 3447,
      "▁Pau": 3448,
      "rück": 3449,
      "management": 3450,
      "▁Köln": 3451,
      "lecht": 3452,
      "▁berücks": 3453,
      "äußer": 3454,
      "▁erreicht": 3455,
      "▁Mart": 3456,
      "▁Kolle": 3457,
      "ffizien": 3458,
      "▁ro": 3459,
      "▁setzt": 3460,
      "tra": 3461,
      "▁2012": 3462,
      "▁ausdrück": 3463,
      "leitung": 3464,
      "▁bekann": 3465,
      "öffnet": 3466,
      "▁derzeit": 3467,
      "▁Licht": 3468,
      "▁ehemal": 3469,
      "▁einigen": 3470,
      "▁Studie": 3471,
      "▁genannten": 3472,
      "▁Michael": 3473,
      "▁Wo": 3474,
      "oder": 3475,
      "▁Kan": 3476,
      "aat": 3477,
      "▁weltweit": 3478,
      "▁Bevölkerung": 3479,
      "▁26": 3480,
      "willigung": 3481,
      "▁zahlreiche": 3482,
      "▁Impf": 3483,
      "▁Schm": 3484,
      "▁kompl": 3485,
      "▁veröffentlicht": 3486,
      "ientier": 3487,
      "▁verfüg": 3488,
      "fassung": 3489,
      "▁Betriebs": 3490,
      "▁Teilnehmer": 3491,
      "ions": 3492,
      "see": 3493,
      "okra": 3494,
      "ots": 3495,
      "▁Betroffen": 3496,
      "▁Titel": 3497,
      "▁sechs": 3498,
      "▁Anbieter": 3499,
      "▁äl": 3500,
      "▁schrift": 3501,
      "▁regelmäßig": 3502,
      "ester": 3503,
      "innt": 3504,
      "fragen": 3505,
      "leitet": 3506,
      "-0": 3507,
      "▁Anzahl": 3508,
      "▁Browser": 3509,
      "/0": 3510,
      "▁Arzt": 3511,
      "▁bekommen": 3512,
      "entrum": 3513,
      "atte": 3514,
      "▁Schritt": 3515,
      "Re": 3516,
      "▁Mutter": 3517,
      "uche": 3518,
      "-19": 3519,
      "hausen": 3520,
      "üsseld": 3521,
      "öpf": 3522,
      "▁Kredit": 3523,
      "▁Wein": 3524,
      "▁soweit": 3525,
      "ue": 3526,
      "sei": 3527,
      "▁entfern": 3528,
      "treter": 3529,
      "▁Hy": 3530,
      "kraine": 3531,
      "öst": 3532,
      "iar": 3533,
      "aktiv": 3534,
      "zeuge": 3535,
      "▁Sonder": 3536,
      "ieten": 3537,
      "isiert": 3538,
      "eiche": 3539,
      "zahlen": 3540,
      "fter": 3541,
      "▁Mobil": 3542,
      "lust": 3543,
      "alk": 3544,
      "▁Tra": 3545,
      "▁zehn": 3546,
      "omas": 3547,
      "ologische": 3548,
      "Innen": 3549,
      "Ein": 3550,
      "▁grundsätzlich": 3551,
      "träge": 3552,
      "▁28": 3553,
      "gehend": 3554,
      "▁heu": 3555,
      "anlagen": 3556,
      "23": 3557,
      "▁Ander": 3558,
      "▁Förderung": 3559,
      "elev": 3560,
      "▁bin": 3561,
      "▁erkennen": 3562,
      "eitag": 3563,
      "äss": 3564,
      "ourn": 3565,
      "▁Stein": 3566,
      "▁Service": 3567,
      "folgen": 3568,
      "▁Bon": 3569,
      "ierende": 3570,
      "▁beschäf": 3571,
      "mittelt": 3572,
      "▁Bilder": 3573,
      "programm": 3574,
      "▁beteil": 3575,
      "▁unabhäng": 3576,
      "gruppen": 3577,
      "▁Gewalt": 3578,
      "abel": 3579,
      "▁gek": 3580,
      "▁psych": 3581,
      "eier": 3582,
      "▁=": 3583,
      "▁195": 3584,
      "▁Beteil": 3585,
      "reuz": 3586,
      "anlage": 3587,
      "▁Frankfurt": 3588,
      "14": 3589,
      "emin": 3590,
      "▁Wirkung": 3591,
      "sum": 3592,
      "andemie": 3593,
      "▁Gruppen": 3594,
      "kur": 3595,
      "zeichnung": 3596,
      "achte": 3597,
      "les": 3598,
      "▁Vertrags": 3599,
      "obei": 3600,
      "reuen": 3601,
      "▁bestimmte": 3602,
      "▁Außen": 3603,
      "wagen": 3604,
      "▁Dis": 3605,
      "bruch": 3606,
      "äs": 3607,
      "onen": 3608,
      "fallen": 3609,
      "anwalt": 3610,
      "▁Kil": 3611,
      "▁ging": 3612,
      "▁modern": 3613,
      "deten": 3614,
      "________": 3615,
      "zeigt": 3616,
      "nt": 3617,
      "trolle": 3618,
      "werke": 3619,
      "▁Bern": 3620,
      "prochen": 3621,
      "ündung": 3622,
      "▁Kurz": 3623,
      "▁Information": 3624,
      "90": 3625,
      "II": 3626,
      "ahren": 3627,
      "▁normal": 3628,
      "edia": 3629,
      "▁werde": 3630,
      "laf": 3631,
      "GH": 3632,
      "▁Leistung": 3633,
      "auen": 3634,
      "▁eng": 3635,
      "▁prakti": 3636,
      "▁Archite": 3637,
      "▁bezeichnet": 3638,
      "stud": 3639,
      "ograph": 3640,
      "▁ausreichen": 3641,
      "▁16.": 3642,
      "▁Nur": 3643,
      "▁Pal": 3644,
      "▁gesamten": 3645,
      "▁90": 3646,
      "▁kennen": 3647,
      "sprech": 3648,
      "gerufen": 3649,
      "fähigkeit": 3650,
      "▁Auswahl": 3651,
      "losen": 3652,
      "bil": 3653,
      "▁Absatz": 3654,
      "Kon": 3655,
      "▁gesetzlichen": 3656,
      "▁Aufgabe": 3657,
      "▁Russland": 3658,
      "▁2011": 3659,
      "▁21.": 3660,
      "▁men": 3661,
      "icken": 3662,
      "▁sagen": 3663,
      "▁jedes": 3664,
      "arbeite": 3665,
      "▁Forschung": 3666,
      "▁Wolf": 3667,
      "▁Gä": 3668,
      "▁Gesundheits": 3669,
      "nern": 3670,
      "▁Künstler": 3671,
      "▁sofort": 3672,
      "▁sozialen": 3673,
      "▁Prin": 3674,
      "ädagog": 3675,
      "▁Standard": 3676,
      "▁14.": 3677,
      "▁Pflanzen": 3678,
      "▁schaffen": 3679,
      "▁entsprechend": 3680,
      "rimin": 3681,
      "▁Minister": 3682,
      "▁hätte": 3683,
      "of": 3684,
      "▁Struktur": 3685,
      "▁entwickeln": 3686,
      "cial": 3687,
      "▁seines": 3688,
      "kre": 3689,
      "▁17.": 3690,
      "ternehmer": 3691,
      "US": 3692,
      "ntag": 3693,
      "▁Früh": 3694,
      "temberg": 3695,
      "▁Pass": 3696,
      "ständen": 3697,
      "▁Rund": 3698,
      "OR": 3699,
      "bildungs": 3700,
      "▁Ukraine": 3701,
      "▁Far": 3702,
      "politik": 3703,
      "frie": 3704,
      "▁Verbraucher": 3705,
      "▁gewesen": 3706,
      "▁Verkauf": 3707,
      "IE": 3708,
      "▁unseres": 3709,
      "elte": 3710,
      "▁Tätigkeit": 3711,
      "ört": 3712,
      "ösen": 3713,
      "ias": 3714,
      "Vor": 3715,
      "▁Vit": 3716,
      "view": 3717,
      "schließend": 3718,
      "linik": 3719,
      "▁darin": 3720,
      "▁tragen": 3721,
      "▁Institut": 3722,
      "▁Nähe": 3723,
      "▁Berufs": 3724,
      "maßnahmen": 3725,
      "ürz": 3726,
      "▁Reihe": 3727,
      "indest": 3728,
      "legung": 3729,
      "▁Baden": 3730,
      "▁Zwecke": 3731,
      "aff": 3732,
      "örungen": 3733,
      "ichtige": 3734,
      "spiele": 3735,
      "▁absol": 3736,
      "▁Kopf": 3737,
      "▁Verk": 3738,
      "orgt": 3739,
      "plant": 3740,
      "iziert": 3741,
      "▁Ap": 3742,
      "zun": 3743,
      "iete": 3744,
      "▁70": 3745,
      "**": 3746,
      "rief": 3747,
      "mitglie": 3748,
      "▁Ac": 3749,
      "jährige": 3750,
      "▁Beratung": 3751,
      "jährigen": 3752,
      "▁Lösung": 3753,
      "estag": 3754,
      "arlament": 3755,
      "-3": 3756,
      "denken": 3757,
      "wendungen": 3758,
      "angel": 3759,
      "ühl": 3760,
      "▁Arbeiten": 3761,
      "1)": 3762,
      "▁Sprache": 3763,
      "▁Krankheit": 3764,
      "▁Link": 3765,
      "▁Rein": 3766,
      "▁welches": 3767,
      "fälle": 3768,
      "▁selten": 3769,
      "stausch": 3770,
      "▁Welche": 3771,
      "▁Webs": 3772,
      "▁(0": 3773,
      "▁Erfahrung": 3774,
      "▁Arten": 3775,
      "Der": 3776,
      "▁größten": 3777,
      "ande": 3778,
      "▁abzu": 3779,
      "ständigen": 3780,
      "▁vorher": 3781,
      "▁Gar": 3782,
      "kämpf": 3783,
      "▁Verm": 3784,
      "▁nimmt": 3785,
      "▁Monate": 3786,
      "▁krit": 3787,
      "werte": 3788,
      "sburg": 3789,
      "▁Partei": 3790,
      "▁Einfluss": 3791,
      "▁Les": 3792,
      "Ber": 3793,
      "err": 3794,
      "▁klein": 3795,
      "tis": 3796,
      "lose": 3797,
      "▁Thomas": 3798,
      "▁Kunde": 3799,
      "▁Kooper": 3800,
      "▁Schrift": 3801,
      "▁Flä": 3802,
      "▁wobei": 3803,
      "stechn": 3804,
      "asch": 3805,
      "mittlung": 3806,
      "meldung": 3807,
      "▁Tur": 3808,
      "▁gleichzeitig": 3809,
      "ieter": 3810,
      "▁Vermögen": 3811,
      "▁Vorsitzen": 3812,
      "▁Video": 3813,
      "gangs": 3814,
      "▁Therapie": 3815,
      "lag": 3816,
      "▁Wirtschafts": 3817,
      "▁(2)": 3818,
      "echsel": 3819,
      "▁Auft": 3820,
      "gegeben": 3821,
      "istr": 3822,
      "ales": 3823,
      "▁angeboten": 3824,
      "▁Arbeitnehmer": 3825,
      "▁politischen": 3826,
      "▁beruf": 3827,
      "▁Dauer": 3828,
      "▁medizin": 3829,
      "▁persönlichen": 3830,
      "get": 3831,
      "▁geworden": 3832,
      "▁Det": 3833,
      "gte": 3834,
      "Das": 3835,
      "eint": 3836,
      "▁ihres": 3837,
      "▁Ihres": 3838,
      "▁präsen": 3839,
      "24": 3840,
      "▁Bedingungen": 3841,
      "▁mittler": 3842,
      "zesse": 3843,
      "sprün": 3844,
      "▁informieren": 3845,
      "▁Falle": 3846,
      "▁(201": 3847,
      "▁Straf": 3848,
      "tigte": 3849,
      "schließen": 3850,
      "▁Fahrzeug": 3851,
      "yl": 3852,
      "falt": 3853,
      "▁Monaten": 3854,
      "ve": 3855,
      "70": 3856,
      "iden": 3857,
      "▁möglichst": 3858,
      "▁solchen": 3859,
      "▁CD": 3860,
      "▁reduz": 3861,
      "▁Dann": 3862,
      "▁It": 3863,
      "▁Mitte": 3864,
      "lichkeiten": 3865,
      "go": 3866,
      "▁Tex": 3867,
      "▁Andre": 3868,
      "▁Einwilligung": 3869,
      "▁stand": 3870,
      "wurf": 3871,
      "▁Vereins": 3872,
      "▁Volks": 3873,
      "▁spielen": 3874,
      "AL": 3875,
      "stat": 3876,
      "sprüche": 3877,
      "▁Männer": 3878,
      "▁jähr": 3879,
      "▁tatsächlich": 3880,
      "▁Organisation": 3881,
      "verwalt": 3882,
      "ständige": 3883,
      "▁anderer": 3884,
      "wesen": 3885,
      "▁info": 3886,
      "▁erheb": 3887,
      "▁suchen": 3888,
      "euch": 3889,
      "wissenschaft": 3890,
      "▁Brand": 3891,
      "▁Verkehrs": 3892,
      "▁Erfahrungen": 3893,
      "▁Widerspruch": 3894,
      "▁entgegen": 3895,
      "▁bem": 3896,
      "▁Bedürf": 3897,
      "▁richtig": 3898,
      "kräfte": 3899,
      ":0": 3900,
      "▁verstehen": 3901,
      "napp": 3902,
      "Mit": 3903,
      "tegie": 3904,
      "▁Gründen": 3905,
      "▁Daher": 3906,
      "finden": 3907,
      "ino": 3908,
      "▁Betreu": 3909,
      "▁internationalen": 3910,
      "äische": 3911,
      "▁ne": 3912,
      "haben": 3913,
      "▁Dom": 3914,
      "DR": 3915,
      "sätze": 3916,
      "▁Position": 3917,
      "▁IP": 3918,
      "▁Char": 3919,
      "▁Miet": 3920,
      "▁nahe": 3921,
      "gelt": 3922,
      "▁Wär": 3923,
      "dingt": 3924,
      "▁unmittel": 3925,
      "bracht": 3926,
      "▁ledig": 3927,
      "raktion": 3928,
      "▁Bru": 3929,
      "▁gefähr": 3930,
      "▁Ausland": 3931,
      "▁fäl": 3932,
      "▁Union": 3933,
      "ichtigung": 3934,
      "▁Schulen": 3935,
      "▁Umsetzung": 3936,
      "anst": 3937,
      "führen": 3938,
      "▁alten": 3939,
      "▁Stu": 3940,
      "zin": 3941,
      "▁Main": 3942,
      "▁Staaten": 3943,
      "▁lediglich": 3944,
      "dass": 3945,
      "setzt": 3946,
      "versammlung": 3947,
      "▁ganze": 3948,
      "▁folgende": 3949,
      "EG": 3950,
      "ördert": 3951,
      "ürttemberg": 3952,
      "▁Öffentlichkeit": 3953,
      "▁Auswirkungen": 3954,
      "▁Direkt": 3955,
      "▁Do": 3956,
      "hem": 3957,
      "schafts": 3958,
      "▁194": 3959,
      "▁Ta": 3960,
      "▁Technik": 3961,
      "▁Angebote": 3962,
      "▁befinden": 3963,
      "▁zunehmen": 3964,
      "▁Prüf": 3965,
      "tegr": 3966,
      "jen": 3967,
      "▁Konz": 3968,
      "▁anders": 3969,
      "▁lin": 3970,
      "kret": 3971,
      "▁aktuell": 3972,
      "recher": 3973,
      "▁Frankreich": 3974,
      "▁Lebensmittel": 3975,
      "▁online": 3976,
      "krieg": 3977,
      "▁Name": 3978,
      "ändig": 3979,
      "burger": 3980,
      "▁Samm": 3981,
      "▁enthält": 3982,
      "▁Bayern": 3983,
      "bli": 3984,
      "▁schwier": 3985,
      "bungen": 3986,
      "▁Ass": 3987,
      "worten": 3988,
      "▁SPD": 3989,
      "▁entfernt": 3990,
      "haber": 3991,
      "▁vielleicht": 3992,
      "▁Investition": 3993,
      "▁sinn": 3994,
      "rastruktur": 3995,
      "inal": 3996,
      "▁erfolgen": 3997,
      "res": 3998,
      "erin": 3999,
      "▁22.": 4000,
      "▁br": 4001,
      "▁Leit": 4002,
      "linien": 4003,
      "tent": 4004,
      "2022": 4005,
      "▁Umgebung": 4006,
      "ja": 4007,
      "zwischen": 4008,
      "▁Auff": 4009,
      "▁gesamte": 4010,
      "▁Dach": 4011,
      "▁Sil": 4012,
      "gelegt": 4013,
      "▁Projekte": 4014,
      "wechsel": 4015,
      "▁Fakt": 4016,
      "▁Altern": 4017,
      "▁Fäh": 4018,
      "▁Verwaltungs": 4019,
      "füllung": 4020,
      "▁http": 4021,
      "ivil": 4022,
      "bank": 4023,
      "irn": 4024,
      "▁unters": 4025,
      "griffen": 4026,
      "mart": 4027,
      "▁Newsl": 4028,
      "▁Regen": 4029,
      "▁gesellschaft": 4030,
      "geordne": 4031,
      "▁Initi": 4032,
      "▁meine": 4033,
      "fektion": 4034,
      "▁ar": 4035,
      "▁Beim": 4036,
      "▁erh": 4037,
      "▁31.": 4038,
      "▁Voraussetzungen": 4039,
      "▁überhaupt": 4040,
      "ücke": 4041,
      "▁Har": 4042,
      "arriere": 4043,
      "▁Wand": 4044,
      "▁Gespräch": 4045,
      "▁genannt": 4046,
      "uelle": 4047,
      "▁verurs": 4048,
      "trem": 4049,
      "▁Tel": 4050,
      "▁Gefahr": 4051,
      "21": 4052,
      "▁Bew": 4053,
      "▁wichtigsten": 4054,
      "▁Alltag": 4055,
      "technik": 4056,
      "▁35": 4057,
      "Aus": 4058,
      "▁guten": 4059,
      "▁Beklag": 4060,
      "ef": 4061,
      "ühlen": 4062,
      "▁Richtung": 4063,
      "zunehmen": 4064,
      "▁pass": 4065,
      "hindern": 4066,
      "▁Veranstaltung": 4067,
      "▁besondere": 4068,
      "vgl": 4069,
      "▁laut": 4070,
      "▁Anlage": 4071,
      "2020": 4072,
      "▁Inhalt": 4073,
      "tive": 4074,
      "▁Stutt": 4075,
      "drich": 4076,
      "▁Stim": 4077,
      "▁angemessen": 4078,
      "▁entsprechenden": 4079,
      "▁Hans": 4080,
      "▁Design": 4081,
      "▁neuer": 4082,
      "▁Modell": 4083,
      "da": 4084,
      "▁Best": 4085,
      "ördern": 4086,
      ":30": 4087,
      "▁to": 4088,
      "ügen": 4089,
      "bte": 4090,
      "▁dan": 4091,
      "▁star": 4092,
      "▁Sonnen": 4093,
      "▁Allerdings": 4094,
      "tw": 4095,
      "▁Oper": 4096,
      "achtet": 4097,
      "▁Milliar": 4098,
      "▁Veranstaltungen": 4099,
      "▁Umgang": 4100,
      "▁verbessern": 4101,
      "▁voraus": 4102,
      "▁kur": 4103,
      "▁0,": 4104,
      "ournal": 4105,
      "▁Bereichen": 4106,
      "▁weiß": 4107,
      "enntnisse": 4108,
      "betrieb": 4109,
      "gut": 4110,
      "▁2009": 4111,
      "▁eigentlich": 4112,
      "okrat": 4113,
      "forschung": 4114,
      "irus": 4115,
      "▁Deshalb": 4116,
      "▁vollständig": 4117,
      "arzt": 4118,
      "▁Medik": 4119,
      "▁europäischen": 4120,
      "▁Sonntag": 4121,
      "ränkt": 4122,
      "▁Zul": 4123,
      "▁23.": 4124,
      "äst": 4125,
      "ießen": 4126,
      "▁Theater": 4127,
      "▁aktuelle": 4128,
      "▁zuvor": 4129,
      "▁außerdem": 4130,
      "▁tran": 4131,
      "ützt": 4132,
      "▁anges": 4133,
      "▁erhoben": 4134,
      "gerichts": 4135,
      "▁Volk": 4136,
      "▁Analyse": 4137,
      "5)": 4138,
      "lesen": 4139,
      "gart": 4140,
      "▁Meer": 4141,
      "▁tätig": 4142,
      "78": 4143,
      "fassungs": 4144,
      "seh": 4145,
      "▁Tipp": 4146,
      "▁teilweise": 4147,
      "▁Sympt": 4148,
      "versorgung": 4149,
      "▁Diskuss": 4150,
      "▁uner": 4151,
      "▁Literatur": 4152,
      "anischen": 4153,
      "▁entsprechende": 4154,
      "reiten": 4155,
      "iell": 4156,
      "emit": 4157,
      "stattung": 4158,
      "ünftig": 4159,
      "6)": 4160,
      "▁Gewinn": 4161,
      "▁Zentrum": 4162,
      "linge": 4163,
      "uster": 4164,
      "äng": 4165,
      "▁Heimat": 4166,
      "▁Vater": 4167,
      "dacht": 4168,
      "▁Sicherheits": 4169,
      "▁Standort": 4170,
      "10.": 4171,
      "▁Freitag": 4172,
      "ktiven": 4173,
      "berger": 4174,
      "▁Innov": 4175,
      "volle": 4176,
      "▁entstanden": 4177,
      "▁Tats": 4178,
      "▁x": 4179,
      "kul": 4180,
      "▁übertragen": 4181,
      "▁Vis": 4182,
      "▁Deutsch": 4183,
      "▁Ul": 4184,
      "▁Verbesser": 4185,
      "▁Integ": 4186,
      "itze": 4187,
      "▁Präsident": 4188,
      "unt": 4189,
      "zahlung": 4190,
      "▁Quelle": 4191,
      "▁genommen": 4192,
      "▁lok": 4193,
      "reut": 4194,
      "gemeine": 4195,
      "rael": 4196,
      "▁Zwischen": 4197,
      "▁Frieden": 4198,
      "▁welcher": 4199,
      "rechts": 4200,
      "text": 4201,
      "▁29": 4202,
      "▁Macht": 4203,
      "gebaut": 4204,
      "▁stets": 4205,
      "▁Forder": 4206,
      "▁Merk": 4207,
      "▁res": 4208,
      "▁wert": 4209,
      "▁elektron": 4210,
      "▁Kampf": 4211,
      "con": 4212,
      "out": 4213,
      "ksamkeit": 4214,
      "▁Nor": 4215,
      "▁Schwar": 4216,
      "▁Firmen": 4217,
      "▁To": 4218,
      "▁Rau": 4219,
      "/201": 4220,
      "upp": 4221,
      "ork": 4222,
      "▁schließlich": 4223,
      "▁Schau": 4224,
      "▁verhindern": 4225,
      "▁Mül": 4226,
      "▁Zeiten": 4227,
      "▁treffen": 4228,
      "▁beachten": 4229,
      "▁Vorteile": 4230,
      "▁Verantwortung": 4231,
      "▁Ehe": 4232,
      "▁#": 4233,
      "iten": 4234,
      "▁benötigt": 4235,
      "essour": 4236,
      "ene": 4237,
      "▁ganzen": 4238,
      "▁beginnt": 4239,
      "▁bitte": 4240,
      "ungspro": 4241,
      "alte": 4242,
      "pft": 4243,
      "▁verd": 4244,
      "igar": 4245,
      "netz": 4246,
      "▁lit": 4247,
      "berech": 4248,
      "▁Hintergrund": 4249,
      "uchs": 4250,
      "▁Experten": 4251,
      "▁Martin": 4252,
      "▁Veröffentlicht": 4253,
      "▁Elektro": 4254,
      "inform": 4255,
      "sa": 4256,
      "geg": 4257,
      "wind": 4258,
      "▁Zahlungs": 4259,
      "▁Rot": 4260,
      "▁sodass": 4261,
      "▁Prüfung": 4262,
      "▁:": 4263,
      "▁Hein": 4264,
      "achstum": 4265,
      "örung": 4266,
      "▁Schn": 4267,
      "letzt": 4268,
      "▁Bedarf": 4269,
      "▁Presse": 4270,
      "annt": 4271,
      "▁Widerruf": 4272,
      "dat": 4273,
      "▁passen": 4274,
      "pa": 4275,
      "rim": 4276,
      "partner": 4277,
      "werbe": 4278,
      "▁zusätzlich": 4279,
      "▁erg": 4280,
      "▁äußer": 4281,
      "▁verfügt": 4282,
      "▁Aktion": 4283,
      "ith": 4284,
      "▁mensch": 4285,
      "▁Verlag": 4286,
      "▁wichtiger": 4287,
      "sprache": 4288,
      "▁Max": 4289,
      "33": 4290,
      "▁Umfang": 4291,
      "punkte": 4292,
      "▁Wettbewerb": 4293,
      "garten": 4294,
      "▁Institu": 4295,
      "länd": 4296,
      "dert": 4297,
      "sh": 4298,
      "▁einger": 4299,
      "▁schützen": 4300,
      "▁Beschluss": 4301,
      "▁Gründe": 4302,
      "bliothe": 4303,
      "▁Management": 4304,
      "▁sprechen": 4305,
      "wissen": 4306,
      "ise": 4307,
      "rige": 4308,
      "ziehungs": 4309,
      "iser": 4310,
      "▁lernen": 4311,
      "▁besonderen": 4312,
      "▁disk": 4313,
      "ete": 4314,
      "▁Schön": 4315,
      "▁Sal": 4316,
      "ämlich": 4317,
      "bauen": 4318,
      "mut": 4319,
      "ente": 4320,
      "▁Kern": 4321,
      ".-": 4322,
      "▁Sor": 4323,
      "▁Aktivitäten": 4324,
      "▁mon": 4325,
      "▁mehreren": 4326,
      "▁Informations": 4327,
      "▁Dien": 4328,
      "▁Durchführung": 4329,
      "OS": 4330,
      "▁Gold": 4331,
      "gren": 4332,
      "▁Handel": 4333,
      "weile": 4334,
      "▁Amts": 4335,
      "tritt": 4336,
      "▁Nahr": 4337,
      "iefer": 4338,
      "li": 4339,
      "Württemberg": 4340,
      "Ich": 4341,
      "kommt": 4342,
      "▁kaufen": 4343,
      "▁Will": 4344,
      "▁Firma": 4345,
      "▁damals": 4346,
      "99": 4347,
      "▁Flücht": 4348,
      "rid": 4349,
      "▁Po": 4350,
      "gänge": 4351,
      "▁2008": 4352,
      "denburg": 4353,
      "12.": 4354,
      "hlen": 4355,
      "ministerium": 4356,
      "▁Milliarden": 4357,
      "zimmer": 4358,
      "hebung": 4359,
      "▁Che": 4360,
      "▁Funktionen": 4361,
      "▁ergän": 4362,
      "▁Gottes": 4363,
      "▁aufzu": 4364,
      "▁staat": 4365,
      "flächen": 4366,
      "▁Mik": 4367,
      "ancen": 4368,
      "leiten": 4369,
      "▁körper": 4370,
      "▁bestä": 4371,
      "▁Mess": 4372,
      "▁China": 4373,
      "▁musste": 4374,
      "▁zuge": 4375,
      "▁Auss": 4376,
      "▁Essen": 4377,
      "▁klass": 4378,
      "hafen": 4379,
      "▁dient": 4380,
      "analy": 4381,
      "omie": 4382,
      "durch": 4383,
      "▁benötigen": 4384,
      "▁Anteil": 4385,
      "ssystem": 4386,
      "▁Urlaub": 4387,
      "▁politische": 4388,
      "7)": 4389,
      "▁Wirk": 4390,
      "▁sogenannten": 4391,
      "▁Franz": 4392,
      "▁Hann": 4393,
      "kmal": 4394,
      "ink": 4395,
      "▁zuletzt": 4396,
      "▁Nachhal": 4397,
      "▁pl": 4398,
      "ängt": 4399,
      "barung": 4400,
      "▁großer": 4401,
      "ometer": 4402,
      "▁betrach": 4403,
      "▁Relig": 4404,
      "▁Unterricht": 4405,
      "tz": 4406,
      "26": 4407,
      "▁Gas": 4408,
      "ara": 4409,
      "▁30.": 4410,
      "UNG": 4411,
      "▁günst": 4412,
      "▁Mig": 4413,
      "▁russ": 4414,
      "▁hinzu": 4415,
      "▁gefunden": 4416,
      "▁wenden": 4417,
      "▁sorgen": 4418,
      "▁Gericht": 4419,
      "▁verantwortlich": 4420,
      "▁nämlich": 4421,
      "▁Mö": 4422,
      "▁Ziele": 4423,
      "äume": 4424,
      "▁hilft": 4425,
      "▁Düsseld": 4426,
      "eid": 4427,
      "▁Fe": 4428,
      "▁Friedrich": 4429,
      "ichtigt": 4430,
      "▁geschlossen": 4431,
      "▁bringt": 4432,
      "▁Beschwerde": 4433,
      "dest": 4434,
      "28": 4435,
      "liefer": 4436,
      "▁zuk": 4437,
      "▁Tro": 4438,
      "int": 4439,
      "▁Marketing": 4440,
      "▁BGB": 4441,
      "läuf": 4442,
      "eth": 4443,
      "▁kultur": 4444,
      "ole": 4445,
      "over": 4446,
      "▁Abend": 4447,
      "werten": 4448,
      "▁allgemeinen": 4449,
      "▁Drit": 4450,
      "▁darunter": 4451,
      "▁spielt": 4452,
      "▁beträgt": 4453,
      "erner": 4454,
      "▁glob": 4455,
      "▁mittels": 4456,
      "gress": 4457,
      "▁Dank": 4458,
      "decken": 4459,
      "▁Tat": 4460,
      "rang": 4461,
      "▁Umsatz": 4462,
      "▁Christian": 4463,
      "▁Suche": 4464,
      "▁vermei": 4465,
      "flü": 4466,
      "dauer": 4467,
      "▁Server": 4468,
      "▁Teilnahme": 4469,
      "fs": 4470,
      "▁integr": 4471,
      "▁Dinge": 4472,
      "prüfung": 4473,
      "elegen": 4474,
      "▁Vier": 4475,
      "▁kommun": 4476,
      "▁grün": 4477,
      "äne": 4478,
      "▁Stuttgart": 4479,
      "▁Zeitraum": 4480,
      "▁Sprach": 4481,
      "▁3,": 4482,
      "mon": 4483,
      "▁Meter": 4484,
      "pol": 4485,
      "▁fand": 4486,
      "okratie": 4487,
      "▁Neue": 4488,
      "▁Angst": 4489,
      "hafte": 4490,
      "▁geeignet": 4491,
      "▁2000": 4492,
      "rufen": 4493,
      "zy": 4494,
      "▁Ausstellung": 4495,
      "▁dire": 4496,
      "▁umfasst": 4497,
      "▁optimal": 4498,
      "▁max": 4499,
      "mark": 4500,
      "rünen": 4501,
      "2)": 4502,
      "▁Pla": 4503,
      "iegen": 4504,
      "▁hätten": 4505,
      "zeigen": 4506,
      "▁geboren": 4507,
      "swert": 4508,
      "▁Erwachsen": 4509,
      "▁Dokument": 4510,
      "▁Geschäftsführer": 4511,
      "örter": 4512,
      "▁Mer": 4513,
      "uhr": 4514,
      "▁Bra": 4515,
      "▁ide": 4516,
      "▁defin": 4517,
      "▁Alex": 4518,
      "lehr": 4519,
      "zuführen": 4520,
      "▁Freiheit": 4521,
      "▁Engagement": 4522,
      "auern": 4523,
      "stellungs": 4524,
      "ET": 4525,
      "▁erz": 4526,
      "uk": 4527,
      "▁beru": 4528,
      "▁lesen": 4529,
      "▁Montag": 4530,
      "▁offiz": 4531,
      "▁####": 4532,
      "▁bilden": 4533,
      "▁vertreten": 4534,
      "wen": 4535,
      "▁irgend": 4536,
      "rug": 4537,
      "ollar": 4538,
      "änge": 4539,
      "elles": 4540,
      "▁Wohl": 4541,
      "räume": 4542,
      "ören": 4543,
      "▁Tor": 4544,
      "▁Ernährung": 4545,
      "inderung": 4546,
      "stellte": 4547,
      "ologien": 4548,
      "pel": 4549,
      "▁Publik": 4550,
      "grenz": 4551,
      "▁gleichen": 4552,
      "▁angegeben": 4553,
      "11.": 4554,
      "▁Weihn": 4555,
      "essor": 4556,
      "▁Get": 4557,
      "tret": 4558,
      "▁einschließlich": 4559,
      "▁vielfäl": 4560,
      "nummer": 4561,
      "▁Terr": 4562,
      "▁Italien": 4563,
      "▁junge": 4564,
      "▁Bal": 4565,
      "▁Lösungen": 4566,
      "ied": 4567,
      "itten": 4568,
      "osoph": 4569,
      "zi": 4570,
      "nissen": 4571,
      "▁Konfl": 4572,
      "▁Stil": 4573,
      "▁ursprün": 4574,
      "wegs": 4575,
      "▁Tre": 4576,
      "langt": 4577,
      "agieren": 4578,
      "▁Preise": 4579,
      "▁erster": 4580,
      "▁Änderungen": 4581,
      "ime": 4582,
      "lern": 4583,
      "leger": 4584,
      "schulen": 4585,
      "▁Zentr": 4586,
      "▁Schlaf": 4587,
      "▁Kompeten": 4588,
      "fert": 4589,
      "▁dienen": 4590,
      "▁erneut": 4591,
      "▁fal": 4592,
      "▁ausgew": 4593,
      "▁berechtigt": 4594,
      "iversität": 4595,
      "ildet": 4596,
      "UR": 4597,
      "Ab": 4598,
      "baut": 4599,
      "▁ergeben": 4600,
      "laubt": 4601,
      "▁beide": 4602,
      "▁gener": 4603,
      "▁überprü": 4604,
      "▁völ": 4605,
      "▁darum": 4606,
      "rankung": 4607,
      "essourcen": 4608,
      "▁Speicher": 4609,
      "35": 4610,
      "▁Bezir": 4611,
      "kor": 4612,
      "▁freuen": 4613,
      "irt": 4614,
      "▁vorliegen": 4615,
      "▁etc": 4616,
      "▁brauchen": 4617,
      "▁Bil": 4618,
      "▁Amer": 4619,
      "▁Drei": 4620,
      "▁Verwaltung": 4621,
      "▁Änderung": 4622,
      "▁bedeuten": 4623,
      "▁Samstag": 4624,
      "▁Startseite": 4625,
      "▁Ir": 4626,
      "▁Beiträge": 4627,
      "vic": 4628,
      "▁Sü": 4629,
      "lieben": 4630,
      "▁warum": 4631,
      "eichnen": 4632,
      "gemeinschaft": 4633,
      "▁Schäden": 4634,
      "▁Gäste": 4635,
      "skon": 4636,
      "▁Liebe": 4637,
      "reite": 4638,
      "▁Feuerwehr": 4639,
      "ktien": 4640,
      "▁Wege": 4641,
      "▁gebracht": 4642,
      "▁Warum": 4643,
      "▁Bitte": 4644,
      "ars": 4645,
      "ziehungen": 4646,
      "▁Leiter": 4647,
      "▁hält": 4648,
      "▁Mor": 4649,
      "▁leich": 4650,
      "▁Bewegung": 4651,
      "ED": 4652,
      "volution": 4653,
      "äher": 4654,
      "itzer": 4655,
      "▁braucht": 4656,
      "pfen": 4657,
      "use": 4658,
      "▁Zugriff": 4659,
      "▁Computer": 4660,
      "riebe": 4661,
      "▁Zer": 4662,
      "funktion": 4663,
      "▁größte": 4664,
      "älfte": 4665,
      "▁Leip": 4666,
      "▁profession": 4667,
      "▁Fin": 4668,
      "▁Netzwerk": 4669,
      "lexib": 4670,
      "▁Insel": 4671,
      "AP": 4672,
      "▁Menge": 4673,
      "▁neues": 4674,
      "▁Prot": 4675,
      "▁Wohnung": 4676,
      "▁meiner": 4677,
      "angebot": 4678,
      "ana": 4679,
      "▁Landkreis": 4680,
      "▁Pil": 4681,
      "▁Et": 4682,
      "▁Sinn": 4683,
      "▁verwende": 4684,
      "▁französ": 4685,
      "▁ad": 4686,
      "▁sofern": 4687,
      "entwicklung": 4688,
      "▁steigen": 4689,
      "▁Sachsen": 4690,
      "▁ober": 4691,
      "ull": 4692,
      "▁Vo": 4693,
      "▁Ferien": 4694,
      "ordin": 4695,
      "öm": 4696,
      "▁Lang": 4697,
      "tiges": 4698,
      "▁Glas": 4699,
      "▁Stiftung": 4700,
      "▁Smart": 4701,
      "▁Heute": 4702,
      "▁tradition": 4703,
      "▁EUR": 4704,
      "29": 4705,
      "▁25.": 4706,
      "freund": 4707,
      "til": 4708,
      "sfäh": 4709,
      "ümer": 4710,
      "▁Lern": 4711,
      "▁außerhalb": 4712,
      "itt": 4713,
      "▁Links": 4714,
      "echnet": 4715,
      "▁zweite": 4716,
      "wald": 4717,
      "27": 4718,
      "scheinlich": 4719,
      "acher": 4720,
      "▁nö": 4721,
      "nerstag": 4722,
      "▁fr": 4723,
      "ymb": 4724,
      "▁jün": 4725,
      "änden": 4726,
      "reig": 4727,
      "▁Einkommen": 4728,
      "erseits": 4729,
      "▁Entwicklungs": 4730,
      "telligen": 4731,
      "bi": 4732,
      "▁Punkt": 4733,
      "dis": 4734,
      "▁Geburt": 4735,
      "▁Monat": 4736,
      "▁Aufent": 4737,
      "▁abgeschlossen": 4738,
      "reib": 4739,
      "staat": 4740,
      "▁älter": 4741,
      "istik": 4742,
      "▁Parteien": 4743,
      "▁Krä": 4744,
      "▁bas": 4745,
      "▁Lager": 4746,
      "zur": 4747,
      "ulti": 4748,
      "▁automatisch": 4749,
      "atri": 4750,
      "▁Gebiet": 4751,
      "▁ausdrücklich": 4752,
      "▁inst": 4753,
      "▁Stück": 4754,
      "ffer": 4755,
      "steh": 4756,
      "2023": 4757,
      "▁Ord": 4758,
      "▁Dass": 4759,
      "▁Press": 4760,
      "▁Detail": 4761,
      "▁heutigen": 4762,
      "▁kor": 4763,
      "▁Bundestag": 4764,
      "amme": 4765,
      "▁Pflicht": 4766,
      "▁Städte": 4767,
      "▁Einige": 4768,
      "ollten": 4769,
      "▁Technologie": 4770,
      "Ges": 4771,
      "▁Verg": 4772,
      "▁Datenver": 4773,
      "▁Motor": 4774,
      "▁Integration": 4775,
      "Ser": 4776,
      "▁Offen": 4777,
      "ube": 4778,
      "▁neg": 4779,
      "arian": 4780,
      "▁min": 4781,
      "AM": 4782,
      "▁rel": 4783,
      "▁soziale": 4784,
      "▁Restau": 4785,
      "▁Ed": 4786,
      "▁Temperatur": 4787,
      "RW": 4788,
      "▁Gerichts": 4789,
      "ines": 4790,
      "ses": 4791,
      "träch": 4792,
      "▁leisten": 4793,
      "▁Schloss": 4794,
      "how": 4795,
      "▁Alters": 4796,
      "▁Nachrichten": 4797,
      "▁Dro": 4798,
      "▁Kooperation": 4799,
      "▁Kapital": 4800,
      "ehren": 4801,
      "auber": 4802,
      "eitern": 4803,
      "▁früh": 4804,
      "▁region": 4805,
      "▁weder": 4806,
      "▁Parlament": 4807,
      "▁Allgemein": 4808,
      "anien": 4809,
      "▁Ganz": 4810,
      "▁Trotz": 4811,
      "▁Berliner": 4812,
      "▁knapp": 4813,
      "▁Fa": 4814,
      "ST": 4815,
      "▁Top": 4816,
      "▁dauer": 4817,
      "reif": 4818,
      "▁Bestimmungen": 4819,
      "System": 4820,
      "alisiert": 4821,
      "▁Vertreter": 4822,
      "ohnt": 4823,
      "▁24.": 4824,
      "nü": 4825,
      "▁cm": 4826,
      "▁ru": 4827,
      "▁Veränderungen": 4828,
      "▁Hause": 4829,
      "Es": 4830,
      "flug": 4831,
      "▁Bundesregierung": 4832,
      "▁Fak": 4833,
      "▁Kreuz": 4834,
      "▁Konzept": 4835,
      "▁produz": 4836,
      "▁Gö": 4837,
      "merz": 4838,
      "▁Größe": 4839,
      "▁keiner": 4840,
      "wirken": 4841,
      "igungs": 4842,
      "▁45": 4843,
      "kap": 4844,
      "▁digitalen": 4845,
      "aufnahme": 4846,
      "▁Tradition": 4847,
      "▁Einrichtungen": 4848,
      "8)": 4849,
      "▁ste": 4850,
      "▁Jahrhunderts": 4851,
      "▁Stoff": 4852,
      "▁moder": 4853,
      "▁Persön": 4854,
      "▁Einschrän": 4855,
      "▁Ereig": 4856,
      "zeugt": 4857,
      "endes": 4858,
      "▁Ku": 4859,
      "sequ": 4860,
      "▁Dritte": 4861,
      "▁geführt": 4862,
      "häuser": 4863,
      "▁überw": 4864,
      "▁Arbeitspl": 4865,
      "iveau": 4866,
      "forderung": 4867,
      "Pl": 4868,
      "rhein": 4869,
      "2021": 4870,
      "▁Bot": 4871,
      "▁zumindest": 4872,
      "▁aner": 4873,
      "bieten": 4874,
      "bas": 4875,
      "▁Einführung": 4876,
      "sphäre": 4877,
      "part": 4878,
      "▁Versicherungs": 4879,
      "kultur": 4880,
      "▁wün": 4881,
      "▁folgt": 4882,
      "maß": 4883,
      "▁sogenannte": 4884,
      "vel": 4885,
      "▁Grenzen": 4886,
      "jekten": 4887,
      "▁Zustand": 4888,
      "▁Eisen": 4889,
      "▁vermeiden": 4890,
      "endet": 4891,
      "wart": 4892,
      "kunden": 4893,
      "do": 4894,
      "▁Bericht": 4895,
      "aktionen": 4896,
      "med": 4897,
      "▁profit": 4898,
      "digungs": 4899,
      "oment": 4900,
      "ms": 4901,
      "bereitung": 4902,
      "▁Tab": 4903,
      "▁trägt": 4904,
      "verwaltung": 4905,
      "▁Salz": 4906,
      "▁fördern": 4907,
      "pflege": 4908,
      "örderung": 4909,
      "medizin": 4910,
      "▁land": 4911,
      "▁med": 4912,
      "▁Spezial": 4913,
      "▁zahlreichen": 4914,
      "▁Ideen": 4915,
      "▁Seine": 4916,
      "ius": 4917,
      "▁stärker": 4918,
      "43": 4919,
      "▁säm": 4920,
      "▁Transport": 4921,
      "▁jem": 4922,
      "▁Job": 4923,
      "▁acht": 4924,
      "▁eingesch": 4925,
      "ikations": 4926,
      "▁Studium": 4927,
      "▁Behörden": 4928,
      "▁Histor": 4929,
      "weder": 4930,
      "▁paar": 4931,
      "▁betreffen": 4932,
      "sprach": 4933,
      "uft": 4934,
      "▁nachdem": 4935,
      "ßt": 4936,
      "arif": 4937,
      "▁Düsseldorf": 4938,
      "sicherheit": 4939,
      "leisch": 4940,
      "▁Red": 4941,
      "▁weiterer": 4942,
      "▁Unfall": 4943,
      "▁Fen": 4944,
      "▁bestimmt": 4945,
      "▁beeinfl": 4946,
      "▁Gu": 4947,
      "▁jungen": 4948,
      "▁international": 4949,
      "twoch": 4950,
      "▁Cl": 4951,
      "▁Wechsel": 4952,
      "kom": 4953,
      "zut": 4954,
      "▁Vorschriften": 4955,
      "▁Baum": 4956,
      "ärzt": 4957,
      "ktor": 4958,
      "▁nieder": 4959,
      "▁Laut": 4960,
      "cy": 4961,
      "▁Öl": 4962,
      "▁Stär": 4963,
      "verordnung": 4964,
      "tragung": 4965,
      "pack": 4966,
      "▁Haft": 4967,
      "material": 4968,
      "▁Benutzer": 4969,
      "▁Opfer": 4970,
      "▁36": 4971,
      "chmal": 4972,
      "▁scheint": 4973,
      "orie": 4974,
      "▁Wander": 4975,
      "alismus": 4976,
      "sorge": 4977,
      "beg": 4978,
      "▁Cas": 4979,
      "▁Handels": 4980,
      "▁Mel": 4981,
      "▁Anlagen": 4982,
      "vier": 4983,
      "▁See": 4984,
      "▁Verhältnis": 4985,
      "▁se": 4986,
      "▁aufgenommen": 4987,
      "▁Paul": 4988,
      "▁Liste": 4989,
      "▁erhöht": 4990,
      "▁übernehmen": 4991,
      "ikal": 4992,
      "lässig": 4993,
      "itzt": 4994,
      "organis": 4995,
      "jenigen": 4996,
      "▁Grundstück": 4997,
      "▁Wunsch": 4998,
      "heber": 4999,
      "ong": 5000,
      "▁Tri": 5001,
      "▁Fehler": 5002,
      "▁Lab": 5003,
      "▁Wetter": 5004,
      "▁Saison": 5005,
      "▁28.": 5006,
      "mung": 5007,
      "▁Lau": 5008,
      "gesetzes": 5009,
      "▁effe": 5010,
      "ühm": 5011,
      "slam": 5012,
      "▁ändern": 5013,
      "▁27.": 5014,
      "sidenten": 5015,
      "koh": 5016,
      "lösung": 5017,
      "▁Perspe": 5018,
      "pla": 5019,
      "▁iden": 5020,
      "▁Social": 5021,
      "bedarf": 5022,
      "▁Schweizer": 5023,
      "werber": 5024,
      "▁Geräte": 5025,
      "▁Verband": 5026,
      "▁Austausch": 5027,
      "▁Hum": 5028,
      "▁langfrist": 5029,
      "ässer": 5030,
      "▁Kol": 5031,
      "▁(3": 5032,
      "dlich": 5033,
      "▁sieben": 5034,
      "▁Sand": 5035,
      "▁Streit": 5036,
      "▁Veröffentlich": 5037,
      "iat": 5038,
      "▁erstmals": 5039,
      "raut": 5040,
      "▁technische": 5041,
      "▁Jo": 5042,
      "▁prü": 5043,
      "▁Vielzahl": 5044,
      "schläge": 5045,
      "sitz": 5046,
      "▁Vergangen": 5047,
      "▁führte": 5048,
      "werbung": 5049,
      "▁Klassen": 5050,
      "spartner": 5051,
      "leisten": 5052,
      "▁Schiff": 5053,
      "▁500": 5054,
      "▁26.": 5055,
      "erien": 5056,
      "▁Fußball": 5057,
      "▁Berat": 5058,
      "▁öffentliche": 5059,
      "▁Verpflicht": 5060,
      "nutz": 5061,
      "▁bein": 5062,
      "▁wichtigen": 5063,
      "▁maxim": 5064,
      "▁Newsletter": 5065,
      "▁Mio": 5066,
      "arbeits": 5067,
      "▁Feld": 5068,
      "▁beginnen": 5069,
      "oge": 5070,
      "▁us": 5071,
      "▁Nachbar": 5072,
      "bericht": 5073,
      "▁beit": 5074,
      "▁Belast": 5075,
      "▁Dadurch": 5076,
      "ichtete": 5077,
      "▁2007": 5078,
      "▁öffentlich": 5079,
      "andid": 5080,
      "▁Donnerstag": 5081,
      "▁Geist": 5082,
      "▁beob": 5083,
      "afft": 5084,
      "▁wenige": 5085,
      "qualität": 5086,
      "▁Pa": 5087,
      "oster": 5088,
      "▁Kontrolle": 5089,
      "▁International": 5090,
      "▁umfang": 5091,
      "DF": 5092,
      "▁Nachhaltigkeit": 5093,
      "istenz": 5094,
      "▁spricht": 5095,
      "▁völlig": 5096,
      "rasch": 5097,
      "mens": 5098,
      "ama": 5099,
      "zähl": 5100,
      "länder": 5101,
      "eiert": 5102,
      "ynam": 5103,
      "teile": 5104,
      "ädchen": 5105,
      "▁beste": 5106,
      "cks": 5107,
      "tensiv": 5108,
      "ächs": 5109,
      "▁anderes": 5110,
      "▁Werbung": 5111,
      "▁Spieler": 5112,
      "EU": 5113,
      "▁Schwanger": 5114,
      "▁Bu": 5115,
      "▁Jahrz": 5116,
      "▁sel": 5117,
      "▁Jugendlichen": 5118,
      "ica": 5119,
      "aust": 5120,
      "▁fehlen": 5121,
      "West": 5122,
      "▁Teile": 5123,
      "kund": 5124,
      "▁sen": 5125,
      "kunde": 5126,
      "▁Comm": 5127,
      "▁ziehen": 5128,
      "liegt": 5129,
      "▁Anschluss": 5130,
      "▁Aufgrund": 5131,
      "indust": 5132,
      "▁arbeitet": 5133,
      "▁zusätzliche": 5134,
      "▁Beweg": 5135,
      "spann": 5136,
      "ane": 5137,
      "altung": 5138,
      "▁Planung": 5139,
      "▁gegründet": 5140,
      "75": 5141,
      "▁Bio": 5142,
      "▁Sofern": 5143,
      "▁verstär": 5144,
      "oppel": 5145,
      "reibung": 5146,
      "indert": 5147,
      "einigung": 5148,
      "unkten": 5149,
      "▁Methoden": 5150,
      "achtung": 5151,
      "▁Kurs": 5152,
      "fällen": 5153,
      "▁Erfüllung": 5154,
      "▁hei": 5155,
      "spf": 5156,
      "ski": 5157,
      "▁behandelt": 5158,
      "▁Tiere": 5159,
      "▁Ep": 5160,
      "nete": 5161,
      "▁Idee": 5162,
      "▁Poten": 5163,
      "▁Fok": 5164,
      "▁Dre": 5165,
      "▁Unternehmer": 5166,
      "▁Kr": 5167,
      "89": 5168,
      "▁Fran": 5169,
      "▁dagegen": 5170,
      "▁entspricht": 5171,
      "▁Ener": 5172,
      "▁verfügbar": 5173,
      "ppe": 5174,
      "▁Graf": 5175,
      "beratung": 5176,
      "▁Hochschule": 5177,
      "▁digitale": 5178,
      "▁Besonders": 5179,
      "▁unmittelbar": 5180,
      "▁empfehlen": 5181,
      "▁ph": 5182,
      "beit": 5183,
      "wecken": 5184,
      "▁verarbeitet": 5185,
      "▁wollte": 5186,
      "▁erinn": 5187,
      "deu": 5188,
      "▁Zahlen": 5189,
      "ymp": 5190,
      "komp": 5191,
      "▁Burg": 5192,
      "▁fach": 5193,
      "fordert": 5194,
      "▁Blog": 5195,
      "Im": 5196,
      "▁Bur": 5197,
      "▁Auftraggeber": 5198,
      "▁Journal": 5199,
      "glisch": 5200,
      "geschrieben": 5201,
      "▁Marken": 5202,
      "▁Plattform": 5203,
      "▁Aufbau": 5204,
      "▁Mittwoch": 5205,
      "▁weg": 5206,
      "üter": 5207,
      "▁Erde": 5208,
      "▁verloren": 5209,
      "▁Überblick": 5210,
      "lieb": 5211,
      "▁unabhängig": 5212,
      "EM": 5213,
      "▁Vergangenheit": 5214,
      "▁Schülerinnen": 5215,
      "▁Orig": 5216,
      "▁Zeu": 5217,
      "lad": 5218,
      "gelassen": 5219,
      "gal": 5220,
      "itis": 5221,
      "So": 5222,
      "▁Hoff": 5223,
      "▁Kant": 5224,
      "ampag": 5225,
      "▁alte": 5226,
      "▁lau": 5227,
      "▁Aufsicht": 5228,
      "▁Gedanken": 5229,
      "▁wachsen": 5230,
      "han": 5231,
      "umm": 5232,
      "fan": 5233,
      "üch": 5234,
      "▁täglich": 5235,
      "deckt": 5236,
      "▁kommenden": 5237,
      "▁Nun": 5238,
      "Bl": 5239,
      "▁Eind": 5240,
      "lehn": 5241,
      "▁erhöhen": 5242,
      "umente": 5243,
      "▁(„": 5244,
      "folgt": 5245,
      "▁(200": 5246,
      "▁Kommission": 5247,
      "▁(§": 5248,
      "▁kleiner": 5249,
      "falen": 5250,
      "ena": 5251,
      "▁General": 5252,
      "▁stra": 5253,
      "▁durchaus": 5254,
      "▁Fotos": 5255,
      "▁unterschiedlich": 5256,
      "▁Bereits": 5257,
      "ürger": 5258,
      "leistet": 5259,
      "▁Verst": 5260,
      "▁(3)": 5261,
      "▁Wärme": 5262,
      "▁Zeichen": 5263,
      "▁stud": 5264,
      "▁richtigen": 5265,
      "▁Hälfte": 5266,
      "▁disku": 5267,
      "▁Tipps": 5268,
      "▁begann": 5269,
      "▁Hersteller": 5270,
      "▁4,": 5271,
      "▁Entscheidungen": 5272,
      "▁Hinweis": 5273,
      "▁Vorteil": 5274,
      "▁190": 5275,
      "ständnis": 5276,
      "denk": 5277,
      "aun": 5278,
      "▁Hof": 5279,
      "▁zählen": 5280,
      "ausschuss": 5281,
      "▁Archiv": 5282,
      "▁schle": 5283,
      "▁CDU": 5284,
      "▁erreich": 5285,
      "▁relev": 5286,
      "▁danach": 5287,
      "▁Fel": 5288,
      "ikationen": 5289,
      "▁richtige": 5290,
      "etzte": 5291,
      "vin": 5292,
      "▁Freund": 5293,
      "osk": 5294,
      "▁Del": 5295,
      "▁Ersatz": 5296,
      "▁entschieden": 5297,
      "▁Jugendliche": 5298,
      "ziplin": 5299,
      "orben": 5300,
      "▁bi": 5301,
      "ischem": 5302,
      "▁Aufnahme": 5303,
      "▁Sache": 5304,
      "1-": 5305,
      "testen": 5306,
      "projekt": 5307,
      "ymn": 5308,
      "▁Zustimmung": 5309,
      "▁Ehren": 5310,
      "▁Schon": 5311,
      "▁Gemeinschaft": 5312,
      "scheidet": 5313,
      "▁Refer": 5314,
      "▁möglicherweise": 5315,
      "▁deutsch": 5316,
      "▁Nutzungs": 5317,
      "▁Erkrankungen": 5318,
      "▁Dorf": 5319,
      "▁Klaus": 5320,
      "▁Erb": 5321,
      "ulation": 5322,
      "▁technischen": 5323,
      "▁Typ": 5324,
      "grö": 5325,
      "▁Stellung": 5326,
      "▁alt": 5327,
      "▁verfügen": 5328,
      "▁Lehrer": 5329,
      "▁Super": 5330,
      "▁Versorgung": 5331,
      "▁invest": 5332,
      "lub": 5333,
      "▁gesehen": 5334,
      "▁süd": 5335,
      "oto": 5336,
      "▁Hor": 5337,
      "▁Aktien": 5338,
      "▁Büro": 5339,
      "empf": 5340,
      "rig": 5341,
      "▁Interview": 5342,
      "▁komplex": 5343,
      "bro": 5344,
      "gewiesen": 5345,
      "▁Schlüssel": 5346,
      "▁gestalten": 5347,
      "gessen": 5348,
      "▁typ": 5349,
      "▁gewährleisten": 5350,
      "bereit": 5351,
      "55": 5352,
      "digen": 5353,
      "▁My": 5354,
      "▁Andreas": 5355,
      "▁letzte": 5356,
      "zenz": 5357,
      "gramme": 5358,
      "▁Jetzt": 5359,
      "▁Kombin": 5360,
      "▁Jose": 5361,
      "▁Verz": 5362,
      "▁Brü": 5363,
      "▁Ablauf": 5364,
      "▁Ton": 5365,
      "atisch": 5366,
      "▁ausgeschlossen": 5367,
      "raten": 5368,
      "▁Amt": 5369,
      "▁Infrastruktur": 5370,
      "▁Türk": 5371,
      "▁verg": 5372,
      "▁überwie": 5373,
      "edes": 5374,
      "▁Symptome": 5375,
      "anische": 5376,
      "▁privaten": 5377,
      "alifiz": 5378,
      "▁TV": 5379,
      "▁Nachdem": 5380,
      "▁Syn": 5381,
      "Stra": 5382,
      "iness": 5383,
      "▁Lud": 5384,
      "▁Meister": 5385,
      "▁Kenntnis": 5386,
      "48": 5387,
      "emente": 5388,
      "wenden": 5389,
      "▁Digitalisierung": 5390,
      "IC": 5391,
      "▁Betroffenen": 5392,
      "▁vorgesehen": 5393,
      "▁Führung": 5394,
      "▁wirksam": 5395,
      "▁by": 5396,
      "▁Diagn": 5397,
      "onie": 5398,
      "▁*": 5399,
      "▁eingeb": 5400,
      "eisen": 5401,
      "▁erle": 5402,
      "▁Darm": 5403,
      "▁Ruhe": 5404,
      "▁Erklärung": 5405,
      "▁Instrum": 5406,
      "▁Hör": 5407,
      "▁Deb": 5408,
      "ungsverfahren": 5409,
      "▁Ra": 5410,
      "▁übrigen": 5411,
      "weite": 5412,
      "▁Ressourcen": 5413,
      "▁Gerät": 5414,
      "▁entsteht": 5415,
      "▁hingegen": 5416,
      "pert": 5417,
      "▁besuchen": 5418,
      "▁west": 5419,
      "fordern": 5420,
      "▁könne": 5421,
      "▁einzigar": 5422,
      "▁Deutschlands": 5423,
      "▁verh": 5424,
      "▁ausreichend": 5425,
      "bus": 5426,
      "▁DS": 5427,
      "ors": 5428,
      "▁Dres": 5429,
      "rats": 5430,
      "▁Wild": 5431,
      "▁Ware": 5432,
      "▁erweiter": 5433,
      "▁Herbst": 5434,
      "▁erwarten": 5435,
      "band": 5436,
      "▁Meinung": 5437,
      "▁Bereit": 5438,
      "▁Kritik": 5439,
      "▁fallen": 5440,
      "▁29.": 5441,
      "ille": 5442,
      "industrie": 5443,
      "▁2006": 5444,
      "ochter": 5445,
      "▁beschrieben": 5446,
      "zünd": 5447,
      "▁Aspe": 5448,
      "▁dich": 5449,
      "▁verlassen": 5450,
      "▁fl": 5451,
      "▁gemeinsamen": 5452,
      "▁zeig": 5453,
      "bart": 5454,
      "▁bewusst": 5455,
      "▁Bestellung": 5456,
      "▁Wachstum": 5457,
      "AD": 5458,
      "obert": 5459,
      "▁Sim": 5460,
      "▁erfüllt": 5461,
      "▁bl": 5462,
      "▁internationale": 5463,
      "gten": 5464,
      "zellen": 5465,
      "▁Camp": 5466,
      "indungen": 5467,
      "▁Alb": 5468,
      "ai": 5469,
      "stoffen": 5470,
      "▁Kategorie": 5471,
      "▁Angriff": 5472,
      "▁fällt": 5473,
      "▁Erinner": 5474,
      "▁Versand": 5475,
      "igur": 5476,
      "▁Untersuchung": 5477,
      "alog": 5478,
      "▁hierzu": 5479,
      "▁33": 5480,
      "▁beraten": 5481,
      "▁Mass": 5482,
      "▁zer": 5483,
      "zielt": 5484,
      "▁Anmeldung": 5485,
      "▁Haftung": 5486,
      "▁Freizeit": 5487,
      "▁form": 5488,
      "▁historischen": 5489,
      "urm": 5490,
      "eichn": 5491,
      "blatt": 5492,
      "bliothek": 5493,
      "▁Gemeinden": 5494,
      "▁Leipzig": 5495,
      "▁Fokus": 5496,
      "gra": 5497,
      "▁maß": 5498,
      "wendungs": 5499,
      "▁Mädchen": 5500,
      "atter": 5501,
      "▁erfüllen": 5502,
      "▁inzwischen": 5503,
      "▁Klasse": 5504,
      "--------": 5505,
      "▁NRW": 5506,
      "▁Zimmer": 5507,
      "▁Organ": 5508,
      "▁erlä": 5509,
      "▁dennoch": 5510,
      "▁Vertei": 5511,
      "handel": 5512,
      "wertet": 5513,
      "ical": 5514,
      "znei": 5515,
      "▁entweder": 5516,
      "▁Gi": 5517,
      "IL": 5518,
      "omin": 5519,
      "▁Linie": 5520,
      "beauftrag": 5521,
      "▁Dienstag": 5522,
      "zahlt": 5523,
      "herapeu": 5524,
      "▁Bücher": 5525,
      "▁obwohl": 5526,
      "hörigen": 5527,
      "onym": 5528,
      "▁Bach": 5529,
      "▁Maschinen": 5530,
      "▁steuer": 5531,
      "▁Kal": 5532,
      "▁Hig": 5533,
      "wirkung": 5534,
      "rika": 5535,
      "verhältnis": 5536,
      "▁näher": 5537,
      "▁att": 5538,
      "arkt": 5539,
      "hoch": 5540,
      "▁Vitamin": 5541,
      "ademie": 5542,
      "rt": 5543,
      "▁Regelungen": 5544,
      "▁gewählt": 5545,
      "▁Reisen": 5546,
      "▁Restauran": 5547,
      "▁regelmäß": 5548,
      "▁wunder": 5549,
      "sm": 5550,
      "▁Servic": 5551,
      "orte": 5552,
      "▁Ausbildungs": 5553,
      "RE": 5554,
      "zusetzen": 5555,
      "pd": 5556,
      "▁mittlerweile": 5557,
      "46": 5558,
      "IP": 5559,
      "kshop": 5560,
      "▁persönliche": 5561,
      "▁Brief": 5562,
      "▁gewinnen": 5563,
      "uchten": 5564,
      "verständlich": 5565,
      "▁Verbesserung": 5566,
      "immel": 5567,
      "▁Inner": 5568,
      "lebnis": 5569,
      "▁Schmerzen": 5570,
      "▁Glück": 5571,
      "kohol": 5572,
      "▁berichtet": 5573,
      "ausch": 5574,
      "▁Orts": 5575,
      "▁Com": 5576,
      "▁Gesetzes": 5577,
      "▁wählen": 5578,
      "▁veran": 5579,
      "▁III": 5580,
      "▁verarbeiten": 5581,
      "▁Gestaltung": 5582,
      "▁Republik": 5583,
      "▁herr": 5584,
      "▁Zivil": 5585,
      "▁lag": 5586,
      "nungen": 5587,
      "olz": 5588,
      "▁Antwort": 5589,
      "▁Zuge": 5590,
      "▁rein": 5591,
      "▁sinnvoll": 5592,
      "▁hochwer": 5593,
      "chtung": 5594,
      "▁gelegen": 5595,
      "orgungs": 5596,
      "▁Verordnung": 5597,
      "ffizienz": 5598,
      "▁01.": 5599,
      "nahm": 5600,
      "▁Air": 5601,
      "▁versuchen": 5602,
      "ellschaften": 5603,
      "▁Mindest": 5604,
      "▁Modern": 5605,
      "verl": 5606,
      "▁geschaffen": 5607,
      "▁Roman": 5608,
      "artige": 5609,
      "▁sorg": 5610,
      "▁beschäftigt": 5611,
      "ams": 5612,
      "ode": 5613,
      "▁geplan": 5614,
      "▁Bö": 5615,
      "▁Stimm": 5616,
      "OL": 5617,
      "loud": 5618,
      "halle": 5619,
      "▁Seni": 5620,
      "▁pf": 5621,
      "spiegel": 5622,
      "▁Landwirtschaft": 5623,
      "lichten": 5624,
      "holt": 5625,
      "▁Ärzte": 5626,
      "▁ehemaligen": 5627,
      "öffnen": 5628,
      "▁innov": 5629,
      "▁Spr": 5630,
      "▁trifft": 5631,
      "▁Faktoren": 5632,
      "▁Löschung": 5633,
      "richtet": 5634,
      "▁par": 5635,
      "▁BM": 5636,
      "▁genug": 5637,
      "spekt": 5638,
      "88": 5639,
      "▁Eigenschaften": 5640,
      "“)": 5641,
      "▁Einrichtung": 5642,
      "gründung": 5643,
      "▁1:": 5644,
      "▁Lernen": 5645,
      "▁Krankenhaus": 5646,
      "▁Verhand": 5647,
      "kirche": 5648,
      "▁stellte": 5649,
      "tierte": 5650,
      "▁wirkt": 5651,
      "ickt": 5652,
      "▁Sohn": 5653,
      "▁einzelne": 5654,
      "ownlo": 5655,
      "▁Paris": 5656,
      "▁Sein": 5657,
      "▁leider": 5658,
      "▁positiv": 5659,
      "leiche": 5660,
      "mand": 5661,
      "önen": 5662,
      "▁amer": 5663,
      "▁auftreten": 5664,
      "▁Jur": 5665,
      "▁Roh": 5666,
      "▁Gemeinsam": 5667,
      "atoren": 5668,
      "▁unbedingt": 5669,
      "karte": 5670,
      "▁Militär": 5671,
      "▁Ausnahme": 5672,
      "Pf": 5673,
      "kaufen": 5674,
      "▁Formen": 5675,
      "ringer": 5676,
      "▁Cookie": 5677,
      "▁dah": 5678,
      "rechnung": 5679,
      "▁funktioniert": 5680,
      "▁Diskussion": 5681,
      "chem": 5682,
      "äure": 5683,
      "ünsch": 5684,
      "▁Il": 5685,
      "uell": 5686,
      "▁miteinander": 5687,
      "by": 5688,
      "▁mag": 5689,
      "dienste": 5690,
      "▁Bürgermeister": 5691,
      "ährungs": 5692,
      "▁FC": 5693,
      "übung": 5694,
      "▁Han": 5695,
      "windigkeit": 5696,
      "▁Flu": 5697,
      "▁bald": 5698,
      "leit": 5699,
      "passen": 5700,
      "▁hinsichtlich": 5701,
      "▁informiert": 5702,
      "enter": 5703,
      "▁Weihnacht": 5704,
      "▁Überw": 5705,
      "▁treten": 5706,
      "▁Zür": 5707,
      "▁Dienste": 5708,
      "BN": 5709,
      "auch": 5710,
      "illen": 5711,
      "Jähr": 5712,
      "staaten": 5713,
      "geschäft": 5714,
      "ikanischen": 5715,
      "mund": 5716,
      "▁Klägerin": 5717,
      "▁erleben": 5718,
      "▁dir": 5719,
      "▁Gefühl": 5720,
      "rachte": 5721,
      "ener": 5722,
      "▁Schluss": 5723,
      "issb": 5724,
      "▁Semin": 5725,
      "▁Kenn": 5726,
      "ymbol": 5727,
      "▁Jes": 5728,
      "▁Werbe": 5729,
      "▁Wa": 5730,
      "wo": 5731,
      "▁erwähn": 5732,
      "▁wenigen": 5733,
      "arn": 5734,
      "▁300": 5735,
      "▁Demokratie": 5736,
      "▁relativ": 5737,
      "▁Kündigung": 5738,
      "ätzung": 5739,
      "plätze": 5740,
      "▁sicht": 5741,
      "▁geringer": 5742,
      "siert": 5743,
      "irm": 5744,
      "▁Wohnungs": 5745,
      "usstsein": 5746,
      "tain": 5747,
      "▁allgemein": 5748,
      "▁York": 5749,
      "dam": 5750,
      "ordnungs": 5751,
      "teilen": 5752,
      "▁Ster": 5753,
      "44": 5754,
      "angebote": 5755,
      "▁Insgesamt": 5756,
      "▁geprä": 5757,
      "ussen": 5758,
      "igungen": 5759,
      "wege": 5760,
      "▁gezeigt": 5761,
      "iffer": 5762,
      "▁Publ": 5763,
      "▁2005": 5764,
      "▁John": 5765,
      "▁Ebene": 5766,
      "▁verlangen": 5767,
      "▁Frist": 5768,
      "amente": 5769,
      "tics": 5770,
      "▁einzige": 5771,
      "geräte": 5772,
      "spieler": 5773,
      "▁Kilometer": 5774,
      "ituationen": 5775,
      "▁Frem": 5776,
      "▁Trau": 5777,
      "▁Gewerbe": 5778,
      "sn": 5779,
      "iver": 5780,
      "▁Heiz": 5781,
      "TE": 5782,
      "▁gesetzt": 5783,
      "▁Materialien": 5784,
      "▁welchen": 5785,
      "▁Risiken": 5786,
      "po": 5787,
      "ätigung": 5788,
      "▁Schwerpunkt": 5789,
      "▁Stefan": 5790,
      "polit": 5791,
      "helm": 5792,
      "▁Stress": 5793,
      "aser": 5794,
      "▁Glauben": 5795,
      "▁eindeu": 5796,
      "▁Hinweise": 5797,
      "ehe": 5798,
      "ish": 5799,
      "▁Regierungs": 5800,
      "▁Chance": 5801,
      "ahnen": 5802,
      "formular": 5803,
      "▁Bab": 5804,
      "ssen": 5805,
      "uellen": 5806,
      "▁konzentr": 5807,
      "öffnung": 5808,
      "▁Pri": 5809,
      "▁reich": 5810,
      "▁lauf": 5811,
      "▁KG": 5812,
      "▁Allgemeinen": 5813,
      "▁Georg": 5814,
      "66": 5815,
      "▁erstellt": 5816,
      "▁erstellen": 5817,
      "holen": 5818,
      "▁veröffentlich": 5819,
      "▁zerst": 5820,
      "osen": 5821,
      "▁modernen": 5822,
      "wander": 5823,
      "▁Ja": 5824,
      "▁Systeme": 5825,
      "▁Ke": 5826,
      "▁Pandemie": 5827,
      "▁Trend": 5828,
      "▁Mehrheit": 5829,
      "▁Sehen": 5830,
      "ografie": 5831,
      "ehrt": 5832,
      "heil": 5833,
      "gestaltung": 5834,
      "Reg": 5835,
      "▁erklären": 5836,
      "üm": 5837,
      "▁erhielt": 5838,
      "▁solcher": 5839,
      "▁Israel": 5840,
      "kan": 5841,
      "▁Ident": 5842,
      "eta": 5843,
      "▁Ludwig": 5844,
      "▁zählt": 5845,
      "etzungen": 5846,
      "▁optim": 5847,
      "▁exist": 5848,
      "▁niedr": 5849,
      "▁Verständnis": 5850,
      "vollen": 5851,
      "hle": 5852,
      "▁mass": 5853,
      "▁Leute": 5854,
      "▁notwendigen": 5855,
      "▁Organisationen": 5856,
      "▁Such": 5857,
      "▁achten": 5858,
      "▁Rechnung": 5859,
      "▁Punkte": 5860,
      "analyse": 5861,
      "hte": 5862,
      "ständigkeit": 5863,
      "▁is": 5864,
      "rechtlichen": 5865,
      "▁daraus": 5866,
      "▁Just": 5867,
      "▁berühm": 5868,
      "page": 5869,
      "vision": 5870,
      "▁Käufer": 5871,
      "▁Pre": 5872,
      "▁berücksichtigt": 5873,
      "anspruch": 5874,
      "▁Einwohner": 5875,
      "werben": 5876,
      "äuft": 5877,
      "▁gekommen": 5878,
      "▁Grad": 5879,
      "▁Stat": 5880,
      "▁Klinik": 5881,
      "weist": 5882,
      "▁versucht": 5883,
      "▁Sex": 5884,
      "anne": 5885,
      "▁Mikro": 5886,
      "▁Bor": 5887,
      "▁usw": 5888,
      "▁'": 5889,
      "▁wiederum": 5890,
      "▁Lü": 5891,
      "▁Jahrzeh": 5892,
      "sträger": 5893,
      "▁Bud": 5894,
      "▁Kop": 5895,
      "reude": 5896,
      "präsident": 5897,
      "▁Patient": 5898,
      "▁Jeder": 5899,
      "▁Szen": 5900,
      "▁jährlich": 5901,
      "antrag": 5902,
      "▁+49": 5903,
      "▁freiwill": 5904,
      "ilien": 5905,
      "macht": 5906,
      "79": 5907,
      "▁Halb": 5908,
      "▁Regeln": 5909,
      "ammer": 5910,
      "▁tritt": 5911,
      "▁verändert": 5912,
      "ites": 5913,
      "▁Chancen": 5914,
      "ichert": 5915,
      "▁Versch": 5916,
      "wechs": 5917,
      "üren": 5918,
      "ährt": 5919,
      "▁gemeinsame": 5920,
      "▁Näch": 5921,
      "enk": 5922,
      "▁Werte": 5923,
      "▁Natür": 5924,
      "spart": 5925,
      "Inst": 5926,
      "wäl": 5927,
      "▁Statist": 5928,
      "▁zugän": 5929,
      "▁geist": 5930,
      "▁Schuld": 5931,
      "gerät": 5932,
      "dessen": 5933,
      "▁Professor": 5934,
      "▁Betreiber": 5935,
      "▁übernommen": 5936,
      "The": 5937,
      "▁sex": 5938,
      "▁letzt": 5939,
      "▁Mail": 5940,
      "▁mögliche": 5941,
      "igte": 5942,
      "▁Bedürfnisse": 5943,
      "▁Üb": 5944,
      "ival": 5945,
      "ordnet": 5946,
      "freiheit": 5947,
      "rypt": 5948,
      "▁News": 5949,
      "▁Zusätz": 5950,
      "CO": 5951,
      "▁Dial": 5952,
      "führten": 5953,
      "formation": 5954,
      "▁Arznei": 5955,
      "Ch": 5956,
      "▁Adresse": 5957,
      "TS": 5958,
      "▁Rn": 5959,
      "▁wirken": 5960,
      "atische": 5961,
      "machung": 5962,
      "▁kamen": 5963,
      "▁Vom": 5964,
      "▁Laufe": 5965,
      "famil": 5966,
      "▁fer": 5967,
      "▁Kindes": 5968,
      "sachsen": 5969,
      "AB": 5970,
      "▁ausger": 5971,
      "▁erwartet": 5972,
      "▁analy": 5973,
      "▁Fähigkeiten": 5974,
      "uchte": 5975,
      "ondon": 5976,
      "▁kostenlos": 5977,
      "weiten": 5978,
      "▁Obwohl": 5979,
      "gewicht": 5980,
      "ownload": 5981,
      "sbeh": 5982,
      "▁Immun": 5983,
      "▁Mand": 5984,
      "▁poten": 5985,
      "eichern": 5986,
      "▁jüd": 5987,
      "▁Wh": 5988,
      "▁ständig": 5989,
      "▁Anfrage": 5990,
      "ness": 5991,
      "▁jur": 5992,
      "GE": 5993,
      "▁vern": 5994,
      "▁Gelegen": 5995,
      "▁150": 5996,
      "ürn": 5997,
      "▁Infektion": 5998,
      "▁gül": 5999,
      "museum": 6000,
      "▁Hu": 6001,
      "▁Zahlung": 6002,
      "▁identifiz": 6003,
      "gerech": 6004,
      "▁Gerade": 6005,
      "gas": 6006,
      "terne": 6007,
      "sex": 6008,
      "App": 6009,
      "▁Agen": 6010,
      "ction": 6011,
      "▁Hund": 6012,
      "pul": 6013,
      "▁bestätigt": 6014,
      "▁Beratungs": 6015,
      "▁Nahrungs": 6016,
      "▁Wichtig": 6017,
      "service": 6018,
      "▁Bayer": 6019,
      "▁Dafür": 6020,
      "▁getroffen": 6021,
      "▁Stad": 6022,
      "agiert": 6023,
      "▁Charakter": 6024,
      "zieht": 6025,
      "▁Beziehungen": 6026,
      "▁Kamer": 6027,
      "▁zahlen": 6028,
      "beu": 6029,
      "ängen": 6030,
      "haften": 6031,
      "schmerzen": 6032,
      "▁Gre": 6033,
      "▁IN": 6034,
      "▁beschlossen": 6035,
      "ld": 6036,
      "▁bislang": 6037,
      "rucht": 6038,
      "▁Cy": 6039,
      "▁Kommentare": 6040,
      "▁Initiative": 6041,
      "▁Prinzip": 6042,
      "istisch": 6043,
      "1/": 6044,
      "ble": 6045,
      "▁Berücks": 6046,
      "▁plan": 6047,
      "IV": 6048,
      "▁Tw": 6049,
      "mail": 6050,
      "▁Leitung": 6051,
      "▁betrieb": 6052,
      "▁rück": 6053,
      "seits": 6054,
      "ash": 6055,
      "anc": 6056,
      "▁Darstellung": 6057,
      "▁Auskunft": 6058,
      "lefon": 6059,
      "▁kannst": 6060,
      "▁vergleich": 6061,
      "▁Lieferung": 6062,
      "kat": 6063,
      "▁Wik": 6064,
      "üben": 6065,
      "▁Grenz": 6066,
      "▁Häus": 6067,
      "▁Block": 6068,
      "▁Mieter": 6069,
      "onn": 6070,
      "En": 6071,
      "grundlage": 6072,
      "▁erlaubt": 6073,
      "▁Zun": 6074,
      "sozial": 6075,
      "▁eig": 6076,
      "tinu": 6077,
      "kurr": 6078,
      "adem": 6079,
      "stätten": 6080,
      "95": 6081,
      "AC": 6082,
      "legten": 6083,
      "▁dro": 6084,
      "▁Ag": 6085,
      "▁1990": 6086,
      "▁Verbr": 6087,
      "▁Urheber": 6088,
      "zum": 6089,
      "üssen": 6090,
      "Te": 6091,
      "atischen": 6092,
      "tlichen": 6093,
      "rate": 6094,
      "üten": 6095,
      "versicher": 6096,
      "▁pol": 6097,
      "▁Regelung": 6098,
      "▁Banken": 6099,
      "Ex": 6100,
      "ischof": 6101,
      "iko": 6102,
      "schafter": 6103,
      "astrop": 6104,
      "▁Interess": 6105,
      "▁Tal": 6106,
      "▁Arbeiter": 6107,
      "alender": 6108,
      "itäts": 6109,
      "▁Tochter": 6110,
      "▁spannen": 6111,
      "▁sorgt": 6112,
      "▁Robert": 6113,
      "▁wahrscheinlich": 6114,
      "mittag": 6115,
      "DP": 6116,
      "fällt": 6117,
      "▁Lohn": 6118,
      "▁ergibt": 6119,
      "▁Waffen": 6120,
      "36": 6121,
      "▁Rö": 6122,
      "▁Fenster": 6123,
      "▁schl": 6124,
      "abend": 6125,
      "▁Rett": 6126,
      "ließt": 6127,
      "▁Landtag": 6128,
      "funk": 6129,
      "▁Quellen": 6130,
      "▁einst": 6131,
      "MS": 6132,
      "▁reicht": 6133,
      "▁vertrag": 6134,
      "▁machte": 6135,
      "▁österreich": 6136,
      "▁geplant": 6137,
      "ita": 6138,
      "▁Prakti": 6139,
      "▁Ama": 6140,
      "▁stattfinden": 6141,
      "▁Hannover": 6142,
      "aup": 6143,
      "▁Gegensatz": 6144,
      "metho": 6145,
      "77": 6146,
      "▁Landschaft": 6147,
      "VG": 6148,
      "▁Vielfalt": 6149,
      "▁gewonnen": 6150,
      "▁Pan": 6151,
      "▁ök": 6152,
      "▁Zin": 6153,
      "▁Alten": 6154,
      "▁Glob": 6155,
      "▁mil": 6156,
      "▁kontroll": 6157,
      "zepte": 6158,
      "ätestens": 6159,
      "▁beteiligt": 6160,
      "▁Gründung": 6161,
      "werks": 6162,
      "weisung": 6163,
      "gf": 6164,
      "▁kat": 6165,
      "▁Unterschied": 6166,
      "▁Win": 6167,
      "▁schriftlich": 6168,
      "unn": 6169,
      "reitet": 6170,
      "▁spiel": 6171,
      "orien": 6172,
      "teste": 6173,
      "▁unten": 6174,
      "Man": 6175,
      "acy": 6176,
      "stehenden": 6177,
      "▁Kombination": 6178,
      "▁Matt": 6179,
      "▁Wolfgang": 6180,
      "dens": 6181,
      "▁fahren": 6182,
      "republik": 6183,
      "ents": 6184,
      "stands": 6185,
      "serv": 6186,
      "stätte": 6187,
      "PO": 6188,
      "▁Architektur": 6189,
      "ICH": 6190,
      "▁London": 6191,
      "▁gesagt": 6192,
      "▁Dennoch": 6193,
      "▁Profil": 6194,
      "▁Empfeh": 6195,
      "mäch": 6196,
      "schaffen": 6197,
      "arbeitern": 6198,
      "▁dank": 6199,
      "leistungs": 6200,
      "▁zugleich": 6201,
      "Kl": 6202,
      "ymnas": 6203,
      "▁übernimmt": 6204,
      "▁Sign": 6205,
      "▁konkre": 6206,
      "änn": 6207,
      "▁Nummer": 6208,
      "holz": 6209,
      "räumen": 6210,
      "▁Zug": 6211,
      "▁genießen": 6212,
      "▁Flughafen": 6213,
      "regel": 6214,
      "wortet": 6215,
      "gül": 6216,
      "▁Pet": 6217,
      "▁Rede": 6218,
      "▁prüfen": 6219,
      "ugend": 6220,
      "85": 6221,
      "▁Betracht": 6222,
      "▁Flächen": 6223,
      "▁Ausdruck": 6224,
      "▁Prem": 6225,
      "▁Maria": 6226,
      "zielen": 6227,
      "▁5,": 6228,
      "▁Handlungs": 6229,
      "▁Vortrag": 6230,
      "▁bundes": 6231,
      "▁Gebrauch": 6232,
      "schä": 6233,
      "bul": 6234,
      "solv": 6235,
      "▁No": 6236,
      "▁Todes": 6237,
      "scheint": 6238,
      "öse": 6239,
      "1]": 6240,
      "raucht": 6241,
      "▁umgesetzt": 6242,
      "vert": 6243,
      "▁erklärte": 6244,
      "▁Produkten": 6245,
      "otherapie": 6246,
      "pfel": 6247,
      "▁Bewertung": 6248,
      "▁Schnit": 6249,
      "anze": 6250,
      "▁genü": 6251,
      "▁BGH": 6252,
      "ata": 6253,
      "leister": 6254,
      "auert": 6255,
      "▁anhand": 6256,
      "▁nächste": 6257,
      "▁34": 6258,
      "asser": 6259,
      "vorsitzen": 6260,
      "▁You": 6261,
      "Prä": 6262,
      "▁Kompon": 6263,
      "lingt": 6264,
      "▁vorge": 6265,
      "▁55": 6266,
      "ritts": 6267,
      "▁Lux": 6268,
      "gesprä": 6269,
      "▁Fehl": 6270,
      "▁schwar": 6271,
      "▁Chem": 6272,
      "▁Opti": 6273,
      "bindung": 6274,
      "ida": 6275,
      "▁berücksichtigen": 6276,
      "barer": 6277,
      "viel": 6278,
      "▁vereinbar": 6279,
      "▁weiteres": 6280,
      "▁ernst": 6281,
      "zentration": 6282,
      "behand": 6283,
      "▁Geschä": 6284,
      "▁Weltkrieg": 6285,
      "▁Regionen": 6286,
      "ios": 6287,
      "▁Werke": 6288,
      "orten": 6289,
      "▁2004": 6290,
      "ola": 6291,
      "▁Ursachen": 6292,
      "okoll": 6293,
      "äumen": 6294,
      "▁zukünf": 6295,
      "▁Dritten": 6296,
      "▁09": 6297,
      "▁Grie": 6298,
      "▁möglichen": 6299,
      "▁hängt": 6300,
      "▁Wissenschaftler": 6301,
      "vid": 6302,
      "▁persönlich": 6303,
      "▁Kör": 6304,
      "karten": 6305,
      "▁Beziehung": 6306,
      "▁Dipl": 6307,
      "▁haupt": 6308,
      "▁Türkei": 6309,
      "▁2002": 6310,
      "▁leist": 6311,
      "▁Autom": 6312,
      "▁ausgeb": 6313,
      "veranstalt": 6314,
      "▁Training": 6315,
      "▁Pop": 6316,
      "▁IV": 6317,
      "fachen": 6318,
      "▁Pfarr": 6319,
      "▁Rücken": 6320,
      "▁Kriegs": 6321,
      "▁hierbei": 6322,
      "ärm": 6323,
      "▁Sicher": 6324,
      "▁Herstellung": 6325,
      "iren": 6326,
      "▁individuellen": 6327,
      "▁ev": 6328,
      "jahres": 6329,
      "fahrer": 6330,
      "▁sicherzustellen": 6331,
      "▁Noch": 6332,
      "Komm": 6333,
      "rägen": 6334,
      "grenzen": 6335,
      "ics": 6336,
      "zweck": 6337,
      "▁Zuf": 6338,
      "▁starke": 6339,
      "ffekt": 6340,
      "500": 6341,
      "▁Genehm": 6342,
      "▁Zusatz": 6343,
      "76": 6344,
      "▁hergestellt": 6345,
      ".03.": 6346,
      "▁bestehenden": 6347,
      "konom": 6348,
      "▁Dresden": 6349,
      "▁Johannes": 6350,
      "▁Kategorien": 6351,
      "entwick": 6352,
      "▁Vertrauen": 6353,
      "▁Verlust": 6354,
      "ada": 6355,
      "lässlich": 6356,
      "▁mussten": 6357,
      "▁Master": 6358,
      "▁Grünen": 6359,
      "wirk": 6360,
      "▁Kaiser": 6361,
      "▁komplett": 6362,
      "▁Rest": 6363,
      "hältnisse": 6364,
      "▁Ausbau": 6365,
      "▁Bereiche": 6366,
      "Land": 6367,
      "spir": 6368,
      "ools": 6369,
      "▁Grundlagen": 6370,
      "▁gesundheit": 6371,
      "▁spezif": 6372,
      "höhung": 6373,
      "▁bildet": 6374,
      "▁wären": 6375,
      "▁Doppel": 6376,
      "▁Herzen": 6377,
      "its": 6378,
      "IM": 6379,
      "▁Leu": 6380,
      "▁Traum": 6381,
      "icro": 6382,
      "▁Original": 6383,
      "erven": 6384,
      "Auf": 6385,
      "▁ISBN": 6386,
      "▁Wird": 6387,
      "▁Webseiten": 6388,
      "▁Ren": 6389,
      "worben": 6390,
      "izieren": 6391,
      "▁Ansprüche": 6392,
      "▁beitragen": 6393,
      "▁Angabe": 6394,
      "klasse": 6395,
      "DE": 6396,
      "passt": 6397,
      "▁Lo": 6398,
      "tierten": 6399,
      "▁hervorragen": 6400,
      "üst": 6401,
      "▁Kollegen": 6402,
      "▁denken": 6403,
      "erkennung": 6404,
      "RO": 6405,
      "▁samm": 6406,
      "▁Betreuung": 6407,
      "hlt": 6408,
      "que": 6409,
      "▁fühlen": 6410,
      "▁profitieren": 6411,
      "▁eröffnet": 6412,
      "▁erscheint": 6413,
      "ace": 6414,
      "▁Prozesse": 6415,
      "▁Erkrankung": 6416,
      "berater": 6417,
      "▁legen": 6418,
      "▁Fälle": 6419,
      "▁Kommentar": 6420,
      "leidung": 6421,
      "hre": 6422,
      "IG": 6423,
      "▁Müller": 6424,
      "SV": 6425,
      "angs": 6426,
      "irurg": 6427,
      "gebäude": 6428,
      "herr": 6429,
      "▁Übersicht": 6430,
      "▁hierfür": 6431,
      "▁Mund": 6432,
      "isieren": 6433,
      "prozess": 6434,
      "39": 6435,
      "bran": 6436,
      "modell": 6437,
      "▁Fahrrad": 6438,
      "▁schul": 6439,
      "▁Geheim": 6440,
      "▁anschließend": 6441,
      "▁erfasst": 6442,
      "oth": 6443,
      "▁gehalten": 6444,
      "▁Dritt": 6445,
      "schine": 6446,
      "▁Leg": 6447,
      "▁Vern": 6448,
      "▁Ausgabe": 6449,
      "▁Mas": 6450,
      "rüst": 6451,
      "▁Aspekte": 6452,
      "spielen": 6453,
      "▁gering": 6454,
      "-)": 6455,
      "▁system": 6456,
      "86": 6457,
      "zugs": 6458,
      "▁Jung": 6459,
      "ographie": 6460,
      "▁DDR": 6461,
      "rsg": 6462,
      "hängig": 6463,
      "▁Sold": 6464,
      "▁verf": 6465,
      "ählte": 6466,
      "solvenz": 6467,
      "kurs": 6468,
      "▁Pe": 6469,
      "▁Mangel": 6470,
      "▁Gesicht": 6471,
      "sprechend": 6472,
      "eutr": 6473,
      "Universität": 6474,
      "▁Behandlungs": 6475,
      "splan": 6476,
      "finanz": 6477,
      "aller": 6478,
      "▁zuständigen": 6479,
      "seiten": 6480,
      "▁Insbesondere": 6481,
      "eligi": 6482,
      "Bearbeiten": 6483,
      "▁dein": 6484,
      "▁Teilen": 6485,
      "▁Nürn": 6486,
      "▁gesetzliche": 6487,
      "▁größere": 6488,
      "abschluss": 6489,
      "ächt": 6490,
      "▁Spiele": 6491,
      "▁Methode": 6492,
      "spezif": 6493,
      "▁Krie": 6494,
      "bten": 6495,
      "riff": 6496,
      "züge": 6497,
      "▁Marke": 6498,
      "▁Gehirn": 6499,
      "gemäß": 6500,
      "▁Ök": 6501,
      "▁Münster": 6502,
      "ätigkeiten": 6503,
      "▁Immer": 6504,
      "▁dritten": 6505,
      "▁zuver": 6506,
      "oler": 6507,
      "▁Steu": 6508,
      "▁Einen": 6509,
      "bring": 6510,
      "▁garan": 6511,
      "▁mm": 6512,
      "fekt": 6513,
      "▁unverzüglich": 6514,
      "▁Anp": 6515,
      "atenschutz": 6516,
      "▁Spanien": 6517,
      "äg": 6518,
      "▁ausführ": 6519,
      "Sti": 6520,
      "▁blo": 6521,
      "▁Renten": 6522,
      "▁Alexander": 6523,
      "stimmt": 6524,
      "▁tief": 6525,
      "▁Juden": 6526,
      "ages": 6527,
      "▁Fo": 6528,
      "behörde": 6529,
      "▁langen": 6530,
      "▁Gren": 6531,
      "▁Bit": 6532,
      "▁Alkohol": 6533,
      "teilungen": 6534,
      "kämpfung": 6535,
      "▁Klimaschutz": 6536,
      "▁Zürich": 6537,
      "ieß": 6538,
      "▁rechts": 6539,
      "einrichtungen": 6540,
      "▁Natürlich": 6541,
      "▁Gleichzeitig": 6542,
      "ga": 6543,
      "▁elektr": 6544,
      "otion": 6545,
      "▁Workshop": 6546,
      "teten": 6547,
      "euert": 6548,
      "▁Jap": 6549,
      "▁meinen": 6550,
      "betrag": 6551,
      "olen": 6552,
      "▁brit": 6553,
      "pfl": 6554,
      "▁at": 6555,
      "▁German": 6556,
      "idar": 6557,
      "bü": 6558,
      "▁Oder": 6559,
      "▁präsentiert": 6560,
      "▁As": 6561,
      "städ": 6562,
      "▁Richter": 6563,
      "▁Business": 6564,
      "▁Media": 6565,
      "meter": 6566,
      "zon": 6567,
      "bilden": 6568,
      "▁Ergän": 6569,
      "Westfalen": 6570,
      "▁stamm": 6571,
      "▁75": 6572,
      "▁Technologien": 6573,
      "FH": 6574,
      "▁08": 6575,
      "eck": 6576,
      "▁Zeitung": 6577,
      "▁Bestandteil": 6578,
      "▁Hü": 6579,
      "gemeinde": 6580,
      "▁SE": 6581,
      "leiben": 6582,
      "▁nahm": 6583,
      "▁hal": 6584,
      "▁Fahrt": 6585,
      "▁Handeln": 6586,
      "west": 6587,
      "▁diver": 6588,
      "▁Klage": 6589,
      "neten": 6590,
      "Ge": 6591,
      "▁vereinbart": 6592,
      "obile": 6593,
      "▁ST": 6594,
      "▁manchmal": 6595,
      "▁Erwerb": 6596,
      "arma": 6597,
      "ktieren": 6598,
      "▁Open": 6599,
      "bürger": 6600,
      "▁Generation": 6601,
      "the": 6602,
      "▁chron": 6603,
      "▁Fra": 6604,
      "pon": 6605,
      "▁geschützt": 6606,
      "▁schneller": 6607,
      "▁Akte": 6608,
      "stoß": 6609,
      "bu": 6610,
      "syl": 6611,
      "▁Papier": 6612,
      "▁Off": 6613,
      "▁festge": 6614,
      "▁Beschwerden": 6615,
      "▁Sieg": 6616,
      "▁anti": 6617,
      "▁festgestellt": 6618,
      "▁Brust": 6619,
      "▁Dir": 6620,
      "werken": 6621,
      "▁gegebenen": 6622,
      "▁vorber": 6623,
      "vo": 6624,
      "▁Spenden": 6625,
      "▁Kammer": 6626,
      "alls": 6627,
      "▁Vertrieb": 6628,
      "▁sprach": 6629,
      "▁Rechtsanwalt": 6630,
      "oben": 6631,
      "▁(4)": 6632,
      "▁Bem": 6633,
      "▁künftig": 6634,
      "▁Fein": 6635,
      "▁Europäische": 6636,
      "ungsst": 6637,
      "▁Konto": 6638,
      "▁deutscher": 6639,
      "▁bedarf": 6640,
      "▁Dam": 6641,
      "▁Beklagten": 6642,
      "ront": 6643,
      "▁starken": 6644,
      "▁zug": 6645,
      "▁mel": 6646,
      "▁Gewähr": 6647,
      "▁geltenden": 6648,
      "▁zunehmend": 6649,
      "RA": 6650,
      "gänger": 6651,
      "ones": 6652,
      "▁Schlagwort": 6653,
      "ehlt": 6654,
      "systeme": 6655,
      "tretung": 6656,
      "▁Hessen": 6657,
      "auso": 6658,
      "produktion": 6659,
      "▁he": 6660,
      "▁Schwier": 6661,
      "▁individuelle": 6662,
      "Art": 6663,
      "▁Ansatz": 6664,
      "pers": 6665,
      "▁Trin": 6666,
      "gener": 6667,
      "▁Farb": 6668,
      "▁akzep": 6669,
      "▁38": 6670,
      "agram": 6671,
      "▁geltend": 6672,
      "”,": 6673,
      "▁höhere": 6674,
      "kirchen": 6675,
      "otto": 6676,
      "▁Fund": 6677,
      "itor": 6678,
      "▁ausgestat": 6679,
      "öscht": 6680,
      "▁fordert": 6681,
      "▁Philosoph": 6682,
      "▁verwendeten": 6683,
      "▁39": 6684,
      "reit": 6685,
      "illa": 6686,
      "▁Voraussetzung": 6687,
      "▁Karten": 6688,
      "▁Herkunft": 6689,
      "ruhe": 6690,
      "▁endlich": 6691,
      "fred": 6692,
      "Gesch": 6693,
      "etzten": 6694,
      "▁vorzu": 6695,
      "▁Rob": 6696,
      "▁geändert": 6697,
      "maßen": 6698,
      "ux": 6699,
      "issionen": 6700,
      "47": 6701,
      "aket": 6702,
      "ählten": 6703,
      "▁Services": 6704,
      "heimer": 6705,
      "▁Massen": 6706,
      "ries": 6707,
      "▁Schwangerschaft": 6708,
      "▁Schnitt": 6709,
      "▁Vorder": 6710,
      "ption": 6711,
      "▁ggf": 6712,
      "▁wesentlich": 6713,
      "tegien": 6714,
      "▁Träger": 6715,
      "ungskosten": 6716,
      "▁Vorgaben": 6717,
      "bereiche": 6718,
      "▁leiden": 6719,
      "zeichnen": 6720,
      "annte": 6721,
      "athem": 6722,
      "▁Wür": 6723,
      "▁Westen": 6724,
      "▁welchem": 6725,
      "▁Krankheiten": 6726,
      "ühle": 6727,
      "ows": 6728,
      "klusive": 6729,
      "▁etabl": 6730,
      "▁natürliche": 6731,
      "-2": 6732,
      "gest": 6733,
      "▁vorbei": 6734,
      "alisieren": 6735,
      "▁Gefahren": 6736,
      "maschinen": 6737,
      "▁ag": 6738,
      "Or": 6739,
      "▁untersucht": 6740,
      "▁install": 6741,
      "▁Verd": 6742,
      "unterricht": 6743,
      "▁2003": 6744,
      "kampf": 6745,
      "▁Kris": 6746,
      "▁Zusätzlich": 6747,
      "▁Daniel": 6748,
      "▁Krise": 6749,
      "▁Hierbei": 6750,
      "▁extrem": 6751,
      "äger": 6752,
      "rö": 6753,
      "▁Evangel": 6754,
      "###": 6755,
      "uliert": 6756,
      "▁ähnlich": 6757,
      "orientier": 6758,
      "ängst": 6759,
      "▁Strategie": 6760,
      "▁AR": 6761,
      "▁Metall": 6762,
      "▁Karriere": 6763,
      "▁großes": 6764,
      "▁Version": 6765,
      "bedürf": 6766,
      "▁Ausübung": 6767,
      "▁ko": 6768,
      "arbeiteten": 6769,
      "▁stärken": 6770,
      "▁erleich": 6771,
      "GVO": 6772,
      "▁altern": 6773,
      "▁Umfeld": 6774,
      "▁nötig": 6775,
      "▁verursacht": 6776,
      "▁Kund": 6777,
      "▁Spann": 6778,
      "ress": 6779,
      "▁Mat": 6780,
      "▁Cloud": 6781,
      "mack": 6782,
      "▁euch": 6783,
      "▁32": 6784,
      "▁Individu": 6785,
      "▁bessere": 6786,
      "▁Nutzen": 6787,
      "▁Hinblick": 6788,
      "agd": 6789,
      "▁Texte": 6790,
      "▁Atem": 6791,
      "ätter": 6792,
      "heits": 6793,
      "▁Hart": 6794,
      "LG": 6795,
      "▁höheren": 6796,
      "▁Videos": 6797,
      "brit": 6798,
      "ike": 6799,
      "itionen": 6800,
      "▁Umständen": 6801,
      "▁Subst": 6802,
      "▁Hom": 6803,
      "▁jemand": 6804,
      "▁Sum": 6805,
      "Nr": 6806,
      "▁Apothe": 6807,
      "▁Moment": 6808,
      "▁Forderungen": 6809,
      "ience": 6810,
      "▁Keine": 6811,
      "▁handeln": 6812,
      "ähler": 6813,
      "▁ließ": 6814,
      "▁wünschen": 6815,
      "lager": 6816,
      "▁Neubau": 6817,
      "▁Quad": 6818,
      "sthe": 6819,
      "▁Kaffe": 6820,
      "onds": 6821,
      "▁gebe": 6822,
      "▁private": 6823,
      "Le": 6824,
      "▁verab": 6825,
      "▁verändern": 6826,
      "dienen": 6827,
      "▁Herausforderung": 6828,
      "▁Muster": 6829,
      "▁fa": 6830,
      "KW": 6831,
      "▁Ast": 6832,
      "▁damal": 6833,
      "eldet": 6834,
      "▁entlang": 6835,
      "▁Eigentümer": 6836,
      "▁)": 6837,
      "▁Stimmen": 6838,
      "freie": 6839,
      "▁Entwicklungen": 6840,
      "▁lebt": 6841,
      "gende": 6842,
      "▁Städten": 6843,
      "mosphäre": 6844,
      "▁Wal": 6845,
      "▁Fried": 6846,
      "▁Varian": 6847,
      "▁Religion": 6848,
      "▁Eigentum": 6849,
      "▁Konflikt": 6850,
      "▁Einblick": 6851,
      "beck": 6852,
      "▁Pfer": 6853,
      "▁Zurück": 6854,
      "zern": 6855,
      "▁herunter": 6856,
      "bef": 6857,
      "▁Neur": 6858,
      "schreiben": 6859,
      "▁Cal": 6860,
      "▁Beam": 6861,
      "planung": 6862,
      "▁neun": 6863,
      "uhl": 6864,
      "film": 6865,
      "▁läuft": 6866,
      "▁Hal": 6867,
      "▁langsam": 6868,
      "ory": 6869,
      "senz": 6870,
      "▁Verkäufer": 6871,
      "▁richtet": 6872,
      "▁Nordrhein": 6873,
      "ames": 6874,
      "verst": 6875,
      "▁Wilhelm": 6876,
      "läub": 6877,
      "▁begrü": 6878,
      "▁Heinrich": 6879,
      ".).": 6880,
      "SA": 6881,
      "merksamkeit": 6882,
      "▁gefördert": 6883,
      "38": 6884,
      "region": 6885,
      "▁Download": 6886,
      "arbeitete": 6887,
      "▁Tisch": 6888,
      "▁Bearbeitung": 6889,
      "▁behandeln": 6890,
      "ütung": 6891,
      "rinzip": 6892,
      "yle": 6893,
      "ders": 6894,
      "▁Kapitel": 6895,
      "▁Gewicht": 6896,
      "▁sämtliche": 6897,
      "▁bed": 6898,
      "▁Details": 6899,
      "digte": 6900,
      "▁moderne": 6901,
      "▁65": 6902,
      "▁Schreiben": 6903,
      "34": 6904,
      "▁Verlauf": 6905,
      "▁Stamm": 6906,
      "▁Sitzung": 6907,
      "▁Auseinander": 6908,
      "gebiete": 6909,
      "▁erforderlichen": 6910,
      "▁Studenten": 6911,
      ":5": 6912,
      "▁zieht": 6913,
      "ual": 6914,
      "phase": 6915,
      "▁anbieten": 6916,
      "FA": 6917,
      "▁individuell": 6918,
      "▁Küche": 6919,
      "gewöhn": 6920,
      "▁Mitarbeitern": 6921,
      "▁Polen": 6922,
      "▁Flor": 6923,
      "9)": 6924,
      "▁Fisch": 6925,
      "▁Zit": 6926,
      "▁Sub": 6927,
      "htt": 6928,
      "BA": 6929,
      "▁Notwend": 6930,
      "ec": 6931,
      "▁gerecht": 6932,
      "uck": 6933,
      "▁la": 6934,
      "▁Danach": 6935,
      "siehe": 6936,
      "▁Mont": 6937,
      "▁Real": 6938,
      "▁Infl": 6939,
      "▁Hyp": 6940,
      "▁Nah": 6941,
      "▁zentrale": 6942,
      "cel": 6943,
      "abrik": 6944,
      "▁Tatsache": 6945,
      "▁Autoren": 6946,
      "ipedia": 6947,
      "▁Stunde": 6948,
      "▁Hafen": 6949,
      "▁Weil": 6950,
      "▁hoh": 6951,
      "▁behaup": 6952,
      "▁Branchen": 6953,
      "annien": 6954,
      "▁Tourismus": 6955,
      "▁Gelegenheit": 6956,
      "abet": 6957,
      "▁Fahrer": 6958,
      "ürgen": 6959,
      "Grund": 6960,
      "rah": 6961,
      "▁Einhaltung": 6962,
      "italien": 6963,
      "archiv": 6964,
      "ergeb": 6965,
      "▁Insolvenz": 6966,
      "▁Fischer": 6967,
      "▁mobil": 6968,
      "stimmen": 6969,
      "▁unterscheiden": 6970,
      ",00": 6971,
      "▁sonstige": 6972,
      "▁Annahme": 6973,
      "▁Sonne": 6974,
      "▁Konzert": 6975,
      "▁überprüfen": 6976,
      "▁Vereinbarung": 6977,
      "▁bisherigen": 6978,
      "sab": 6979,
      "▁Alternative": 6980,
      "▁Richtlinie": 6981,
      "▁Teams": 6982,
      "ichteten": 6983,
      "▁gewährleistet": 6984,
      "▁Ursache": 6985,
      "LE": 6986,
      "▁allgemeine": 6987,
      "mitglieder": 6988,
      "▁reduzieren": 6989,
      "▁Krypt": 6990,
      "▁Herrn": 6991,
      "▁Tarif": 6992,
      "▁überall": 6993,
      "künfte": 6994,
      "▁wann": 6995,
      "kannte": 6996,
      "▁Erstellung": 6997,
      "▁Schmid": 6998,
      "ürk": 6999,
      "schreiten": 7000,
      "▁06": 7001,
      "▁vieler": 7002,
      "tischer": 7003,
      "▁Farben": 7004,
      "▁Brenn": 7005,
      "krain": 7006,
      "▁Sind": 7007,
      "ards": 7008,
      "konzept": 7009,
      "▁geprägt": 7010,
      "app": 7011,
      "▁Publikum": 7012,
      "laubnis": 7013,
      "▁Mobilität": 7014,
      "▁Arg": 7015,
      "▁Merkmal": 7016,
      "▁il": 7017,
      "Über": 7018,
      "▁Schwarz": 7019,
      "▁Besitz": 7020,
      ".),": 7021,
      "▁Norden": 7022,
      "▁Fernseh": 7023,
      "▁Ernst": 7024,
      "▁Schu": 7025,
      "▁Freude": 7026,
      "▁attra": 7027,
      "▁betrifft": 7028,
      "▁zugänglich": 7029,
      "schiede": 7030,
      "ahme": 7031,
      "▁Aust": 7032,
      "▁Beweis": 7033,
      "Vers": 7034,
      "▁Medikamente": 7035,
      "▁Haushalt": 7036,
      "ührt": 7037,
      "▁Aufmerksamkeit": 7038,
      "▁Bonn": 7039,
      "▁Smartph": 7040,
      "CD": 7041,
      "okal": 7042,
      "▁Wohnungen": 7043,
      "Hrsg": 7044,
      "stechnik": 7045,
      "▁freien": 7046,
      "bad": 7047,
      "lassung": 7048,
      "▁Ball": 7049,
      "teuer": 7050,
      "ieden": 7051,
      "▁Wün": 7052,
      "sächlich": 7053,
      "▁tro": 7054,
      "▁Solar": 7055,
      "▁Europas": 7056,
      "Um": 7057,
      "▁Twitter": 7058,
      "minist": 7059,
      "▁Vorher": 7060,
      "▁Instagram": 7061,
      "▁400": 7062,
      "▁los": 7063,
      "losigkeit": 7064,
      "▁37": 7065,
      "▁Unterlagen": 7066,
      "euern": 7067,
      "▁schreibt": 7068,
      "▁Wart": 7069,
      "▁Strand": 7070,
      "▁begonnen": 7071,
      "▁angenommen": 7072,
      "▁lö": 7073,
      "▁Arme": 7074,
      "“-": 7075,
      "▁Tim": 7076,
      "▁Lim": 7077,
      "▁frühen": 7078,
      "▁getr": 7079,
      "OP": 7080,
      "▁Bekannt": 7081,
      "▁Osten": 7082,
      "höhe": 7083,
      "britannien": 7084,
      "▁frem": 7085,
      "▁48": 7086,
      "▁spätestens": 7087,
      "Techn": 7088,
      "▁größeren": 7089,
      "▁Verletzung": 7090,
      "urteilung": 7091,
      "▁Forscher": 7092,
      "▁gelöscht": 7093,
      "▁Phot": 7094,
      "▁unterwegs": 7095,
      "▁Schne": 7096,
      "▁Datum": 7097,
      "▁ans": 7098,
      "▁Erweiter": 7099,
      "▁Schwe": 7100,
      "▁Fläche": 7101,
      "▁teilnehmen": 7102,
      "able": 7103,
      "-/": 7104,
      "▁schreiben": 7105,
      "▁event": 7106,
      "▁Beispiele": 7107,
      "▁auseinander": 7108,
      "▁Persönlichkeit": 7109,
      "uth": 7110,
      "StG": 7111,
      "weichen": 7112,
      "▁dest": 7113,
      "▁Grenze": 7114,
      "sbet": 7115,
      "▁Berechn": 7116,
      "▁6,": 7117,
      "za": 7118,
      "informationen": 7119,
      "▁Intelligen": 7120,
      "▁Haushalts": 7121,
      "steil": 7122,
      ");": 7123,
      "▁Einkauf": 7124,
      "▁2:": 7125,
      "pap": 7126,
      "sal": 7127,
      "▁Brandenburg": 7128,
      "▁Schles": 7129,
      "▁Sammlung": 7130,
      "genie": 7131,
      "rab": 7132,
      "▁Finanzierung": 7133,
      "geht": 7134,
      "▁verletzt": 7135,
      "▁Europe": 7136,
      "▁statist": 7137,
      "▁University": 7138,
      "verhalten": 7139,
      "▁schwierig": 7140,
      "▁geschrieben": 7141,
      "▁Nachfrage": 7142,
      "leun": 7143,
      "wissenschaften": 7144,
      "▁Vorstands": 7145,
      "▁Ott": 7146,
      "▁Live": 7147,
      "hörige": 7148,
      "imen": 7149,
      "tert": 7150,
      "agentur": 7151,
      "▁Registr": 7152,
      "▁verlänger": 7153,
      "▁Soweit": 7154,
      "▁registr": 7155,
      "Pandemie": 7156,
      "uel": 7157,
      "▁Abgeordne": 7158,
      "▁Geschlecht": 7159,
      "▁dürfte": 7160,
      "▁Frühjahr": 7161,
      "▁Senioren": 7162,
      "swür": 7163,
      "rans": 7164,
      "▁betrachtet": 7165,
      "▁Bewohner": 7166,
      "paratur": 7167,
      "▁Milch": 7168,
      "▁bestimmen": 7169,
      "65": 7170,
      "no": 7171,
      "lings": 7172,
      "ktivität": 7173,
      "Stud": 7174,
      "▁müsse": 7175,
      "▁Zusch": 7176,
      "▁Motiv": 7177,
      "▁Buchst": 7178,
      "▁Ansprech": 7179,
      "▁Hon": 7180,
      "▁natürlichen": 7181,
      "▁Ker": 7182,
      "▁ausgestattet": 7183,
      "schritt": 7184,
      "anzler": 7185,
      "gelöst": 7186,
      "Kreis": 7187,
      "37": 7188,
      "▁Investitionen": 7189,
      "▁stren": 7190,
      "Institut": 7191,
      "▁Identität": 7192,
      "▁Jubil": 7193,
      "▁Na": 7194,
      "Stand": 7195,
      "ersatz": 7196,
      "ierend": 7197,
      "SU": 7198,
      "person": 7199,
      "▁Ermitt": 7200,
      "▁Islam": 7201,
      "▁Hauptstadt": 7202,
      "▁Fertig": 7203,
      "▁Micro": 7204,
      "▁Bahnhof": 7205,
      "eigent": 7206,
      "▁Krebs": 7207,
      "sem": 7208,
      "tinuier": 7209,
      "▁kre": 7210,
      "▁Beklagte": 7211,
      "liste": 7212,
      "▁einfache": 7213,
      "▁positive": 7214,
      "▁drin": 7215,
      "sprechung": 7216,
      "rachten": 7217,
      "▁Kommunen": 7218,
      "lechter": 7219,
      "ärten": 7220,
      "ologen": 7221,
      "▁Alles": 7222,
      "▁y": 7223,
      "▁Innovation": 7224,
      "▁Leser": 7225,
      "Bild": 7226,
      "▁Thür": 7227,
      "▁offenen": 7228,
      "▁erzählt": 7229,
      "▁kost": 7230,
      "äud": 7231,
      "▁blieb": 7232,
      "alition": 7233,
      "▁3-": 7234,
      "selben": 7235,
      "▁diejenigen": 7236,
      "▁heim": 7237,
      "scheidung": 7238,
      "attet": 7239,
      "öger": 7240,
      "öch": 7241,
      "ep": 7242,
      "▁Ebenso": 7243,
      "liga": 7244,
      "▁künstler": 7245,
      "▁Reaktion": 7246,
      "▁Beob": 7247,
      "ads": 7248,
      "▁Konsum": 7249,
      "▁Abschnitt": 7250,
      "▁SGB": 7251,
      "abilität": 7252,
      "▁Fett": 7253,
      "▁Net": 7254,
      "preise": 7255,
      "▁Asyl": 7256,
      "▁Hochschul": 7257,
      "▁betrieben": 7258,
      "▁empfohlen": 7259,
      "uropa": 7260,
      "▁Migration": 7261,
      "▁Back": 7262,
      "SS": 7263,
      "▁nationalen": 7264,
      "▁Strukturen": 7265,
      "▁Speicherung": 7266,
      "▁erscheinen": 7267,
      "▁liefern": 7268,
      "▁Arzneimittel": 7269,
      "problem": 7270,
      "▁lösen": 7271,
      "▁Spaß": 7272,
      "▁erheblich": 7273,
      "▁vielmehr": 7274,
      "abs": 7275,
      "▁struktur": 7276,
      "▁abgerufen": 7277,
      "wirt": 7278,
      "kammer": 7279,
      "grenzt": 7280,
      "▁phys": 7281,
      "▁Ohne": 7282,
      "▁Unabhäng": 7283,
      "▁Optim": 7284,
      "ates": 7285,
      "▁christ": 7286,
      "▁Anliegen": 7287,
      "▁erschienen": 7288,
      "▁Denken": 7289,
      "azin": 7290,
      "üse": 7291,
      "▁Betrag": 7292,
      "Nach": 7293,
      "▁ged": 7294,
      "▁unge": 7295,
      "▁kürz": 7296,
      "priv": 7297,
      "wertungen": 7298,
      "ary": 7299,
      "▁Mittelpunkt": 7300,
      "▁Sel": 7301,
      "▁ehren": 7302,
      "▁Dritter": 7303,
      "▁Rheinland": 7304,
      "▁Quar": 7305,
      "▁49": 7306,
      "▁David": 7307,
      "▁Fahrzeuge": 7308,
      "▁flexib": 7309,
      "▁beliebte": 7310,
      "▁Stahl": 7311,
      "▁Erf": 7312,
      "swürdig": 7313,
      "▁Begl": 7314,
      "nehmung": 7315,
      "pädagog": 7316,
      "▁religi": 7317,
      "frieden": 7318,
      "lack": 7319,
      "pressum": 7320,
      "▁Rie": 7321,
      "▁rei": 7322,
      "▁Untersuchungen": 7323,
      "▁erläuter": 7324,
      "tau": 7325,
      "Mod": 7326,
      "ölf": 7327,
      "▁Ess": 7328,
      "▁(5": 7329,
      "kannten": 7330,
      "▁Einheit": 7331,
      "▁Falls": 7332,
      "produkte": 7333,
      "zeugung": 7334,
      "▁Verfüg": 7335,
      "bewahr": 7336,
      "▁stammen": 7337,
      "▁Bremen": 7338,
      "▁verschiedener": 7339,
      "▁entstand": 7340,
      "▁Cyber": 7341,
      "▁Veränderung": 7342,
      "▁Bundesrepublik": 7343,
      "zeichnungen": 7344,
      "ly": 7345,
      "▁Analytics": 7346,
      "▁steigt": 7347,
      "folgung": 7348,
      "folger": 7349,
      "▁Vorgehen": 7350,
      "▁außen": 7351,
      "▁Revolution": 7352,
      "▁Versorgungs": 7353,
      "▁Gebur": 7354,
      "▁Morgen": 7355,
      "▁Häuf": 7356,
      "lehen": 7357,
      "bestand": 7358,
      "▁zeigte": 7359,
      "wörter": 7360,
      "▁passiert": 7361,
      "▁Beteiligung": 7362,
      "▁sah": 7363,
      "▁PC": 7364,
      "▁Stift": 7365,
      "isierte": 7366,
      "▁wirtschaftliche": 7367,
      "▁Kriterien": 7368,
      "atis": 7369,
      "▁vertrau": 7370,
      "behalt": 7371,
      "gi": 7372,
      "bringung": 7373,
      "3-": 7374,
      "gebracht": 7375,
      "▁Hen": 7376,
      "▁beeinträch": 7377,
      "▁bau": 7378,
      "▁ausländ": 7379,
      "▁Phase": 7380,
      "▁Lesen": 7381,
      "verbrauch": 7382,
      "▁Erhalt": 7383,
      "▁Anerkennung": 7384,
      "Ent": 7385,
      "▁schließen": 7386,
      "anbieter": 7387,
      "▁Halle": 7388,
      "▁07": 7389,
      "▁Wegen": 7390,
      "▁Wol": 7391,
      "▁Arbeitsplatz": 7392,
      "▁abhängig": 7393,
      "fertigt": 7394,
      "▁geprü": 7395,
      "▁Rechnungs": 7396,
      "▁Nie": 7397,
      "tierung": 7398,
      "fried": 7399,
      "gemä": 7400,
      "ima": 7401,
      "hlung": 7402,
      "▁speziell": 7403,
      "▁Vereinigten": 7404,
      "▁monat": 7405,
      "wende": 7406,
      "beruf": 7407,
      "▁Farbe": 7408,
      "▁Sollte": 7409,
      "BD": 7410,
      "▁Bör": 7411,
      "▁Karls": 7412,
      "schlüssel": 7413,
      "ungsf": 7414,
      "▁Fleisch": 7415,
      "▁Japan": 7416,
      "ikanische": 7417,
      "▁virt": 7418,
      "▁Option": 7419,
      "▁Spitzen": 7420,
      "Tube": 7421,
      "ränken": 7422,
      "ampagne": 7423,
      "▁Rich": 7424,
      "erken": 7425,
      "präsent": 7426,
      "spor": 7427,
      "räfte": 7428,
      "▁Klimawand": 7429,
      "▁benutz": 7430,
      "▁Freunde": 7431,
      "▁Grö": 7432,
      "▁Homepage": 7433,
      "sbesch": 7434,
      "▁schweren": 7435,
      "▁tatsäch": 7436,
      "▁zuständig": 7437,
      "▁geh": 7438,
      "asi": 7439,
      "fernen": 7440,
      "▁Widerstand": 7441,
      "▁bekommt": 7442,
      "▁Sw": 7443,
      "systems": 7444,
      "▁Höch": 7445,
      "ibel": 7446,
      "anzlei": 7447,
      "een": 7448,
      "▁Hilfs": 7449,
      "▁Studierenden": 7450,
      "▁Niedersachsen": 7451,
      "▁san": 7452,
      "▁nahezu": 7453,
      "▁wechs": 7454,
      "▁bewegen": 7455,
      "oo": 7456,
      "▁national": 7457,
      "▁Kloster": 7458,
      "position": 7459,
      "▁nennen": 7460,
      "allel": 7461,
      "▁Kompetenz": 7462,
      "▁2001": 7463,
      "▁Beschäftigten": 7464,
      "UM": 7465,
      "32": 7466,
      "▁Nik": 7467,
      "▁kämpf": 7468,
      "schaff": 7469,
      "cc": 7470,
      "ony": 7471,
      "affung": 7472,
      "▁verschw": 7473,
      "▁Branche": 7474,
      "gründen": 7475,
      "▁Naturschutz": 7476,
      "▁Gebühren": 7477,
      "▁Ba": 7478,
      "▁demokra": 7479,
      "▁nachhaltige": 7480,
      "iertes": 7481,
      "holung": 7482,
      "▁militär": 7483,
      "steigen": 7484,
      "▁begleitet": 7485,
      "Ger": 7486,
      "risten": 7487,
      "2019": 7488,
      "▁Infos": 7489,
      "▁Install": 7490,
      "ündnis": 7491,
      "personen": 7492,
      "▁hoher": 7493,
      "ula": 7494,
      "▁wes": 7495,
      "▁weisen": 7496,
      "▁gesetzlich": 7497,
      "▁teilen": 7498,
      "▁Wiener": 7499,
      "▁Justiz": 7500,
      "iga": 7501,
      "▁Kontext": 7502,
      "▁kontinuier": 7503,
      "low": 7504,
      "zungs": 7505,
      "ward": 7506,
      "kreten": 7507,
      "▁bekannten": 7508,
      "ätzt": 7509,
      "▁Multi": 7510,
      "neider": 7511,
      "▁§§": 7512,
      "▁entdecken": 7513,
      "Sc": 7514,
      "ielten": 7515,
      "▁hauptsächlich": 7516,
      "▁ersetzt": 7517,
      "▁Sprecher": 7518,
      "▁Nachweis": 7519,
      "termin": 7520,
      "derung": 7521,
      "▁Institutionen": 7522,
      "▁7,": 7523,
      "▁Por": 7524,
      "▁weist": 7525,
      "▁menschlichen": 7526,
      "▁Kohlen": 7527,
      "▁Schritte": 7528,
      "▁Weiterlesen": 7529,
      "▁Wurz": 7530,
      "ziehungsweise": 7531,
      "▁SP": 7532,
      "chner": 7533,
      "▁Erz": 7534,
      "gels": 7535,
      "▁Paten": 7536,
      "back": 7537,
      "▁korre": 7538,
      "schlossen": 7539,
      "!“": 7540,
      "Hol": 7541,
      "attformen": 7542,
      "▁Antworten": 7543,
      "▁Säu": 7544,
      "▁Terror": 7545,
      "▁Dialog": 7546,
      "▁Magen": 7547,
      "▁Einschränkung": 7548,
      "▁spezielle": 7549,
      "▁besitzt": 7550,
      "körper": 7551,
      "▁31": 7552,
      "rechtliche": 7553,
      "▁eigenes": 7554,
      "▁vergessen": 7555,
      "hause": 7556,
      "▁vorgenommen": 7557,
      "▁Klass": 7558,
      "▁Ansicht": 7559,
      "IA": 7560,
      "▁Nürnberg": 7561,
      "▁verbessert": 7562,
      "▁bezüglich": 7563,
      "DS": 7564,
      "▁Neuer": 7565,
      "▁zufolge": 7566,
      "▁Brun": 7567,
      "▁Anwendungen": 7568,
      "▁stammt": 7569,
      "ypen": 7570,
      "ländern": 7571,
      "▁russischen": 7572,
      "▁erworben": 7573,
      "▁(0)": 7574,
      "▁sichtbar": 7575,
      "▁Vorbereitung": 7576,
      "▁rechtlichen": 7577,
      "antie": 7578,
      "▁Bir": 7579,
      "▁geöffnet": 7580,
      "▁Anwalt": 7581,
      "▁genauso": 7582,
      "▁46": 7583,
      "erung": 7584,
      "▁ff": 7585,
      "mitglied": 7586,
      "üste": 7587,
      "Mus": 7588,
      "▁Knochen": 7589,
      "NA": 7590,
      "▁Konzentration": 7591,
      "tere": 7592,
      "▁Herren": 7593,
      "▁einerseits": 7594,
      "42": 7595,
      "▁Großbritannien": 7596,
      "▁Ros": 7597,
      "▁maßgeb": 7598,
      "werden": 7599,
      "spolitik": 7600,
      "sti": 7601,
      "rieden": 7602,
      "▁Zwar": 7603,
      "lers": 7604,
      "orts": 7605,
      "▁reduziert": 7606,
      "▁gewünsch": 7607,
      "▁Minder": 7608,
      "liefert": 7609,
      "▁verkauft": 7610,
      "▁dok": 7611,
      "schiff": 7612,
      "▁Entsteh": 7613,
      "struktion": 7614,
      "steiger": 7615,
      "webe": 7616,
      "▁übermittelt": 7617,
      "achter": 7618,
      "zten": 7619,
      "anteil": 7620,
      "▁Muskel": 7621,
      "▁Erwachsenen": 7622,
      "zündung": 7623,
      "▁einheit": 7624,
      "▁vorgestellt": 7625,
      "▁Viertel": 7626,
      "▁Soldaten": 7627,
      "▁Ausgang": 7628,
      "▁Aufwand": 7629,
      "▁Potenzial": 7630,
      "▁finanzielle": 7631,
      "▁beziehungsweise": 7632,
      "amb": 7633,
      "▁Ven": 7634,
      "▁Fremd": 7635,
      "▁Objekt": 7636,
      "▁Rohr": 7637,
      "▁Defin": 7638,
      "▁erhältlich": 7639,
      "▁hören": 7640,
      "schlüsse": 7641,
      "win": 7642,
      "▁Roll": 7643,
      "▁Pressemit": 7644,
      "▁laufen": 7645,
      "▁absolv": 7646,
      "▁widerrufen": 7647,
      "fiz": 7648,
      "▁dahin": 7649,
      "▁wor": 7650,
      "Deut": 7651,
      "ächer": 7652,
      "▁Ann": 7653,
      "▁sog": 7654,
      "▁Sehenswürdig": 7655,
      "lösen": 7656,
      "▁Rel": 7657,
      "▁Schließlich": 7658,
      "genden": 7659,
      "Wer": 7660,
      "laube": 7661,
      "▁fordern": 7662,
      "schech": 7663,
      "▁Ordnung": 7664,
      "▁Messe": 7665,
      "▁Treffen": 7666,
      "▁erzielen": 7667,
      "fähig": 7668,
      "▁gestaltet": 7669,
      "haf": 7670,
      "▁post": 7671,
      "Aut": 7672,
      "▁Befrag": 7673,
      "▁Sing": 7674,
      "log": 7675,
      "▁Tick": 7676,
      "äuß": 7677,
      "ologisch": 7678,
      "▁konkreten": 7679,
      "▁Jubiläum": 7680,
      "klärt": 7681,
      "▁Eingriff": 7682,
      "▁Dollar": 7683,
      "▁städ": 7684,
      "sstra": 7685,
      "eiern": 7686,
      "▁intensiv": 7687,
      "▁erwähnt": 7688,
      "▁Atom": 7689,
      "behalten": 7690,
      "dlichen": 7691,
      "hören": 7692,
      "musik": 7693,
      "ernt": 7694,
      "bildungen": 7695,
      "nutzung": 7696,
      "iefen": 7697,
      "▁Stell": 7698,
      "▁Systems": 7699,
      "gig": 7700,
      "▁Hotels": 7701,
      "▁120": 7702,
      "hauses": 7703,
      "▁Andere": 7704,
      "▁Rechtsan": 7705,
      "▁trotzdem": 7706,
      "schm": 7707,
      "▁beziehen": 7708,
      "▁ausgezeichnet": 7709,
      "▁ursprünglich": 7710,
      "▁Richtlinien": 7711,
      "▁links": 7712,
      "▁dargestellt": 7713,
      "▁Fassung": 7714,
      "chnen": 7715,
      "▁gegebenenfalls": 7716,
      "▁Beide": 7717,
      "odurch": 7718,
      "▁verlieren": 7719,
      "zeige": 7720,
      "▁lohnt": 7721,
      "▁Aufenthalt": 7722,
      "▁deine": 7723,
      "▁legt": 7724,
      "▁Vermögens": 7725,
      "▁Zä": 7726,
      "▁kombin": 7727,
      "▁verkaufen": 7728,
      "▁Einzelfall": 7729,
      "▁Energien": 7730,
      "▁Mitgliedern": 7731,
      "licherweise": 7732,
      "▁engl": 7733,
      "▁Mad": 7734,
      "row": 7735,
      "▁Miner": 7736,
      "▁kathol": 7737,
      "▁nutzt": 7738,
      "ners": 7739,
      "ritz": 7740,
      "For": 7741,
      "▁telefon": 7742,
      "ize": 7743,
      "▁herz": 7744,
      "▁Süden": 7745,
      "▁Gewerk": 7746,
      "▁Atmosphäre": 7747,
      "▁europäische": 7748,
      "▁Websites": 7749,
      "diger": 7750,
      "▁Kapit": 7751,
      "▁Politiker": 7752,
      "▁YouTube": 7753,
      "▁Weiterbildung": 7754,
      "issbrauch": 7755,
      "▁guter": 7756,
      "▁sin": 7757,
      "▁Trum": 7758,
      "▁Stock": 7759,
      "▁ha": 7760,
      "▁Haar": 7761,
      "stunden": 7762,
      "▁konkrete": 7763,
      "fäll": 7764,
      "schreibung": 7765,
      "▁Allgemeine": 7766,
      "▁000": 7767,
      "________________": 7768,
      "wahr": 7769,
      "asste": 7770,
      "▁Eindruck": 7771,
      "▁Misch": 7772,
      "▁Kla": 7773,
      "ml": 7774,
      "▁spezial": 7775,
      "▁Existenz": 7776,
      "▁öffnen": 7777,
      "▁endgül": 7778,
      "reue": 7779,
      "haut": 7780,
      "▁Ther": 7781,
      "▁Digital": 7782,
      "▁Somit": 7783,
      "sekret": 7784,
      "▁Entwurf": 7785,
      "▁wid": 7786,
      "▁Amazon": 7787,
      "▁Verfassungs": 7788,
      "▁180": 7789,
      "▁(18": 7790,
      "▁Kandid": 7791,
      "▁Schmerz": 7792,
      "soft": 7793,
      "▁Beteiligten": 7794,
      "▁Wall": 7795,
      "kräf": 7796,
      "▁Bade": 7797,
      "rüstung": 7798,
      "eige": 7799,
      "andt": 7800,
      "98": 7801,
      "▁strateg": 7802,
      "rak": 7803,
      "▁Stau": 7804,
      "▁Cop": 7805,
      "istan": 7806,
      "▁Qualitäts": 7807,
      "arben": 7808,
      "▁stabil": 7809,
      "▁gebaut": 7810,
      "gefühl": 7811,
      "olden": 7812,
      "tifik": 7813,
      "une": 7814,
      "▁zugelassen": 7815,
      "▁verhindert": 7816,
      "▁Führer": 7817,
      "▁Händ": 7818,
      "▁Group": 7819,
      "alit": 7820,
      "▁Versuch": 7821,
      "▁breit": 7822,
      "chester": 7823,
      "▁französischen": 7824,
      "akte": 7825,
      "▁Wandel": 7826,
      "4-": 7827,
      "üre": 7828,
      "▁Künst": 7829,
      "▁Pay": 7830,
      "arischen": 7831,
      "▁Orte": 7832,
      "▁darstellen": 7833,
      "lim": 7834,
      "▁überzeugt": 7835,
      "▁gern": 7836,
      "schöpf": 7837,
      "▁errichtet": 7838,
      "▁chines": 7839,
      "▁Maler": 7840,
      "▁Markus": 7841,
      "▁problem": 7842,
      "▁Quadrat": 7843,
      "lötz": 7844,
      "▁Täter": 7845,
      "▁Jede": 7846,
      "▁Turn": 7847,
      "häusern": 7848,
      "rät": 7849,
      "▁Fass": 7850,
      "▁Himmel": 7851,
      "trägen": 7852,
      "▁Reh": 7853,
      "▁Gal": 7854,
      "sprüchen": 7855,
      "▁Pu": 7856,
      "▁schlecht": 7857,
      "bilder": 7858,
      "▁ehemalige": 7859,
      "▁letztlich": 7860,
      "sper": 7861,
      "▁Nerven": 7862,
      "▁gelangen": 7863,
      "▁maximal": 7864,
      "fle": 7865,
      "▁Bauch": 7866,
      "▁Obst": 7867,
      "dex": 7868,
      "gesellschaften": 7869,
      "▁seiten": 7870,
      "fangen": 7871,
      "96": 7872,
      "▁historische": 7873,
      "▁sichern": 7874,
      "▁Hierzu": 7875,
      "itation": 7876,
      "▁oftmals": 7877,
      "▁Koch": 7878,
      "▁niemand": 7879,
      "gesprochen": 7880,
      "indlich": 7881,
      "sc": 7882,
      "▁Stern": 7883,
      "▁wodurch": 7884,
      "▁Krankenk": 7885,
      "krit": 7886,
      "▁gutes": 7887,
      "TER": 7888,
      "▁Radio": 7889,
      "sprung": 7890,
      "▁Rud": 7891,
      "behörden": 7892,
      "iefe": 7893,
      "bestimmungen": 7894,
      "▁durchführen": 7895,
      "▁Prüfungs": 7896,
      "▁gere": 7897,
      "▁gelungen": 7898,
      "seitig": 7899,
      "▁plötz": 7900,
      "▁Dist": 7901,
      "▁Serie": 7902,
      "▁Begründung": 7903,
      "▁glauben": 7904,
      "▁City": 7905,
      "führungen": 7906,
      "▁Bauern": 7907,
      "▁mitge": 7908,
      "fektionen": 7909,
      "▁Steuern": 7910,
      "▁schnelle": 7911,
      "▁erfordert": 7912,
      "▁Fax": 7913,
      "nütz": 7914,
      "tim": 7915,
      "▁oper": 7916,
      "▁verstärkt": 7917,
      "▁Rem": 7918,
      "▁250": 7919,
      "▁verlie": 7920,
      "▁Abteilung": 7921,
      "▁Konsequ": 7922,
      "schwer": 7923,
      "träglich": 7924,
      "zeption": 7925,
      "▁Kommunikations": 7926,
      "▁Verpflichtung": 7927,
      "Bet": 7928,
      "▁erfolgte": 7929,
      "ativer": 7930,
      "▁behalten": 7931,
      "▁ergänzt": 7932,
      "▁Schleswig": 7933,
      "▁Bewerb": 7934,
      "mär": 7935,
      "▁Konkurr": 7936,
      "▁verlangt": 7937,
      "▁angepasst": 7938,
      "grenze": 7939,
      "▁perfe": 7940,
      "anen": 7941,
      "Gr": 7942,
      "▁Drittel": 7943,
      "▁Empfänger": 7944,
      "▁ehrenamt": 7945,
      "▁meinem": 7946,
      "BS": 7947,
      "räf": 7948,
      "ights": 7949,
      "ya": 7950,
      "▁desto": 7951,
      "▁Anlass": 7952,
      "ieht": 7953,
      "▁Cap": 7954,
      "ktiver": 7955,
      "▁ren": 7956,
      "2018": 7957,
      "▁angesehen": 7958,
      "▁Philipp": 7959,
      "iens": 7960,
      "▁Datenüber": 7961,
      "▁Sollten": 7962,
      "▁fehlt": 7963,
      "hten": 7964,
      "▁Ansprechpartner": 7965,
      "▁gleiche": 7966,
      "▁Normal": 7967,
      "▁DE": 7968,
      "▁Sei": 7969,
      "Dollar": 7970,
      "▁Realität": 7971,
      "nehmern": 7972,
      "▁Inc": 7973,
      "mlich": 7974,
      "schäden": 7975,
      "▁Col": 7976,
      "urteilt": 7977,
      "▁Wahrheit": 7978,
      "VID": 7979,
      "▁Jürgen": 7980,
      "abt": 7981,
      "▁Strei": 7982,
      "–19": 7983,
      "▁italien": 7984,
      "▁zuerst": 7985,
      "nimmt": 7986,
      "▁erkenn": 7987,
      "▁Kos": 7988,
      "▁Hall": 7989,
      "▁Tätigkeiten": 7990,
      "▁festgelegt": 7991,
      "▁Konta": 7992,
      "41": 7993,
      "▁Reform": 7994,
      "▁voller": 7995,
      "▁Völker": 7996,
      "verk": 7997,
      "▁Rechtsprechung": 7998,
      "▁Mannschaft": 7999,
      "Mark": 8000,
      "▁zusätzlichen": 8001,
      "▁Tanz": 8002,
      "alerie": 8003,
      "▁SV": 8004,
      "zeichnete": 8005,
      "fre": 8006,
      "▁zweit": 8007,
      "▁kennt": 8008,
      "▁Fluss": 8009,
      "▁Griechen": 8010,
      "▁finanziellen": 8011,
      "äck": 8012,
      "▁Rettungs": 8013,
      "▁Vorsitzender": 8014,
      "▁Mr": 8015,
      "utlich": 8016,
      "ichtung": 8017,
      "▁Immobilie": 8018,
      "▁effizien": 8019,
      "▁medizinischen": 8020,
      "▁beschreibt": 8021,
      "▁dokumen": 8022,
      "▁Bewusstsein": 8023,
      "IR": 8024,
      "▁Redaktion": 8025,
      "▁Brem": 8026,
      "▁Hunde": 8027,
      "konto": 8028,
      "▁erm": 8029,
      "▁Gründer": 8030,
      "▁Projekten": 8031,
      "anstalter": 8032,
      "▁Autob": 8033,
      "▁dringend": 8034,
      "abetes": 8035,
      "Pfalz": 8036,
      "quem": 8037,
      "▁Can": 8038,
      "▁Betroffene": 8039,
      "Her": 8040,
      "▁Regional": 8041,
      "▁Oft": 8042,
      "▁kurze": 8043,
      "▁klassischen": 8044,
      "▁Präsent": 8045,
      "kw": 8046,
      "▁Statt": 8047,
      "riech": 8048,
      "▁Matth": 8049,
      "▁Heidel": 8050,
      "▁angesichts": 8051,
      "Jahr": 8052,
      "▁Theorie": 8053,
      "▁Englisch": 8054,
      "▁speichern": 8055,
      "▁Geburtstag": 8056,
      "▁Unterschiede": 8057,
      "▁Erkenntnisse": 8058,
      "rücken": 8059,
      "▁Christoph": 8060,
      "2/": 8061,
      "▁Präsidenten": 8062,
      "▁zulässig": 8063,
      "▁Diagnose": 8064,
      "▁Lehre": 8065,
      "gro": 8066,
      "fur": 8067,
      "▁sonstigen": 8068,
      "▁rechnen": 8069,
      "▁Rosen": 8070,
      "2]": 8071,
      "▁Fähigkeit": 8072,
      "gewinn": 8073,
      "▁Inhalts": 8074,
      "störungen": 8075,
      "wä": 8076,
      "hor": 8077,
      "▁GR": 8078,
      "▁dur": 8079,
      "ansprüche": 8080,
      "31": 8081,
      "▁gelang": 8082,
      "▁Bewerber": 8083,
      "ini": 8084,
      "▁zufrieden": 8085,
      "▁Elemente": 8086,
      "OM": 8087,
      "ces": 8088,
      "kn": 8089,
      "arbeitungs": 8090,
      "▁Bre": 8091,
      "felder": 8092,
      "▁01.0": 8093,
      "▁Koordin": 8094,
      "geschoss": 8095,
      "▁besitzen": 8096,
      "▁Mängel": 8097,
      "lernen": 8098,
      "akterien": 8099,
      "inf": 8100,
      "dige": 8101,
      "▁Erkenntnis": 8102,
      "▁Dokumente": 8103,
      "▁Entfern": 8104,
      "oweit": 8105,
      ".):": 8106,
      "▁Plug": 8107,
      "▁Ingenie": 8108,
      "▁Tabl": 8109,
      "▁05": 8110,
      "▁Nähr": 8111,
      "▁Denk": 8112,
      "▁leichter": 8113,
      "▁Schei": 8114,
      "familien": 8115,
      "geschlagen": 8116,
      "landes": 8117,
      "klar": 8118,
      "▁potenziel": 8119,
      "Arch": 8120,
      "▁bestehende": 8121,
      "▁Dreh": 8122,
      "▁sport": 8123,
      "▁fördert": 8124,
      "sbild": 8125,
      "folgend": 8126,
      "vorschriften": 8127,
      "▁Vorsitzende": 8128,
      "▁erweitert": 8129,
      "▁Ereignisse": 8130,
      "▁häufiger": 8131,
      "▁Lizenz": 8132,
      "▁mg": 8133,
      "▁Syr": 8134,
      "urn": 8135,
      "▁natur": 8136,
      "▁beschränkt": 8137,
      "▁seitens": 8138,
      "▁erfolgreiche": 8139,
      "emm": 8140,
      "Produ": 8141,
      "stern": 8142,
      "▁Gegenstand": 8143,
      "▁eingeführt": 8144,
      "»,": 8145,
      "▁Erwart": 8146,
      "▁Modelle": 8147,
      "«,": 8148,
      "▁Att": 8149,
      "▁Anwendungs": 8150,
      "iber": 8151,
      "ürzt": 8152,
      "Sh": 8153,
      "▁verfolgt": 8154,
      "resse": 8155,
      "▁Nachw": 8156,
      "▁beobachten": 8157,
      "azz": 8158,
      "▁Führungsk": 8159,
      "▁besucht": 8160,
      "▁warten": 8161,
      "merksam": 8162,
      "▁schöne": 8163,
      "▁jene": 8164,
      "▁Nächster": 8165,
      "▁entwickelte": 8166,
      "▁organisiert": 8167,
      "dio": 8168,
      "rucken": 8169,
      "▁AGB": 8170,
      "▁Mak": 8171,
      "▁Geschichten": 8172,
      "▁Einstellung": 8173,
      "fr": 8174,
      "****": 8175,
      "tifizierung": 8176,
      "ümm": 8177,
      "▁Gemüse": 8178,
      "▁begleiten": 8179,
      "zahlungen": 8180,
      "schn": 8181,
      "deckung": 8182,
      "▁World": 8183,
      "ema": 8184,
      "DA": 8185,
      "cur": 8186,
      "legte": 8187,
      "▁lokalen": 8188,
      "konferenz": 8189,
      "Service": 8190,
      "▁angemessene": 8191,
      "▁1999": 8192,
      "▁Hoffnung": 8193,
      "▁kurzfrist": 8194,
      "hänger": 8195,
      "ton": 8196,
      "orfer": 8197,
      "Sta": 8198,
      "▁Bischof": 8199,
      "▁ruh": 8200,
      "ovid": 8201,
      "▁Kirch": 8202,
      "▁praktisch": 8203,
      "▁Eingang": 8204,
      "▁zeichn": 8205,
      "▁Out": 8206,
      "haltet": 8207,
      "kommun": 8208,
      "Mar": 8209,
      "▁Karte": 8210,
      "stock": 8211,
      "▁Räume": 8212,
      "▁jahr": 8213,
      "ba": 8214,
      "▁Schwierigkeiten": 8215,
      "freien": 8216,
      "▁Denkmal": 8217,
      "zehn": 8218,
      "▁Pod": 8219,
      "▁Flüchtlinge": 8220,
      "bis": 8221,
      "▁Überprüfung": 8222,
      "fakt": 8223,
      "▁beeinflussen": 8224,
      "▁Logistik": 8225,
      "sendung": 8226,
      "▁qualifiz": 8227,
      "3/": 8228,
      "▁medizinische": 8229,
      "vertreten": 8230,
      "▁Zoll": 8231,
      "beginn": 8232,
      "▁Willen": 8233,
      "▁Situationen": 8234,
      "▁grundlegen": 8235,
      "dler": 8236,
      "▁Vogel": 8237,
      "▁1945": 8238,
      "genehm": 8239,
      "orge": 8240,
      "▁Orientier": 8241,
      "verbot": 8242,
      "▁reagieren": 8243,
      "ayer": 8244,
      "▁00": 8245,
      "▁1980": 8246,
      "▁Kein": 8247,
      "▁nachhaltig": 8248,
      "▁früheren": 8249,
      "100": 8250,
      "aner": 8251,
      "alth": 8252,
      "▁verboten": 8253,
      "öt": 8254,
      "iner": 8255,
      "▁Eu": 8256,
      "sfähigkeit": 8257,
      "▁reichen": 8258,
      "lichem": 8259,
      "▁Schäd": 8260,
      ".02.": 8261,
      "ato": 8262,
      "▁Krisen": 8263,
      "klang": 8264,
      "▁Akademie": 8265,
      "PS": 8266,
      "betreiber": 8267,
      "▁dauert": 8268,
      "▁Impressum": 8269,
      "gehende": 8270,
      "ausbildung": 8271,
      "▁Häuser": 8272,
      "▁Gelände": 8273,
      "wes": 8274,
      "▁Bestimmung": 8275,
      "fällig": 8276,
      "▁Klin": 8277,
      "▁regul": 8278,
      "▁einsch": 8279,
      "▁Verbrauch": 8280,
      "ano": 8281,
      "aching": 8282,
      "▁Sauer": 8283,
      "Che": 8284,
      "▁entscheidet": 8285,
      "▁zwölf": 8286,
      "▁erinnert": 8287,
      "ision": 8288,
      "▁vermitteln": 8289,
      "▁Einnahme": 8290,
      "▁weshalb": 8291,
      "▁bedro": 8292,
      "▁Erhebung": 8293,
      "▁äußerst": 8294,
      "kal": 8295,
      "sparenz": 8296,
      "▁Rock": 8297,
      "disziplin": 8298,
      "▁konf": 8299,
      "▁Phys": 8300,
      "virus": 8301,
      "▁inhalt": 8302,
      "ged": 8303,
      "ric": 8304,
      "ütter": 8305,
      "▁Reparatur": 8306,
      "▁person": 8307,
      "atein": 8308,
      "▁rad": 8309,
      "▁Pflichten": 8310,
      "▁Bereitstellung": 8311,
      "▁Meld": 8312,
      "▁zentralen": 8313,
      "▁ähnliche": 8314,
      "▁Erste": 8315,
      "▁schafft": 8316,
      "brechen": 8317,
      "▁gelegt": 8318,
      "▁beruflichen": 8319,
      "kündigt": 8320,
      "etts": 8321,
      "▁Fraktion": 8322,
      "itution": 8323,
      "reift": 8324,
      "kar": 8325,
      "▁Val": 8326,
      "▁essen": 8327,
      "▁Kab": 8328,
      "▁Aussage": 8329,
      "▁einsetzen": 8330,
      "reuung": 8331,
      "coin": 8332,
      "▁fühl": 8333,
      "aszin": 8334,
      "▁Bewegungs": 8335,
      "▁Olymp": 8336,
      "äuden": 8337,
      "Straße": 8338,
      "▁Operation": 8339,
      "▁Veranstaltungs": 8340,
      "▁Flüss": 8341,
      "▁Hard": 8342,
      "quelle": 8343,
      "suchen": 8344,
      "▁bezieht": 8345,
      "steck": 8346,
      "frau": 8347,
      "▁richten": 8348,
      "▁Demon": 8349,
      "▁KI": 8350,
      "▁musikal": 8351,
      "▁genauer": 8352,
      ".”": 8353,
      "▁direkte": 8354,
      "TV": 8355,
      "strom": 8356,
      "spricht": 8357,
      "ziele": 8358,
      "iale": 8359,
      "▁Behörde": 8360,
      "hungen": 8361,
      "Holstein": 8362,
      "▁Jahrzehnten": 8363,
      "▁Eich": 8364,
      "tien": 8365,
      "gs": 8366,
      "ology": 8367,
      "▁geprüft": 8368,
      "Neu": 8369,
      "▁Cann": 8370,
      "▁Eintritt": 8371,
      "▁Versicherung": 8372,
      "▁Dor": 8373,
      "▁Shop": 8374,
      "▁Gesell": 8375,
      "zentren": 8376,
      "idenz": 8377,
      "tor": 8378,
      "▁Leiden": 8379,
      "▁betont": 8380,
      "▁sub": 8381,
      "▁ungew": 8382,
      "▁Vorhaben": 8383,
      "▁diskutiert": 8384,
      ".09.": 8385,
      "reiter": 8386,
      "▁Ausgaben": 8387,
      "EIT": 8388,
      "▁PDF": 8389,
      "▁emotion": 8390,
      "Co": 8391,
      "▁th": 8392,
      "▁Spielen": 8393,
      "auff": 8394,
      "Mitglie": 8395,
      "ags": 8396,
      "ikon": 8397,
      "▁Fit": 8398,
      "inderten": 8399,
      "führte": 8400,
      "heben": 8401,
      "▁Mut": 8402,
      "ych": 8403,
      "▁Auge": 8404,
      "▁produziert": 8405,
      "▁kurzen": 8406,
      "▁erhobenen": 8407,
      "▁überwiegend": 8408,
      "▁Kann": 8409,
      "▁Zentral": 8410,
      "▁Prävention": 8411,
      "▁Geburts": 8412,
      "▁weib": 8413,
      "▁mark": 8414,
      "▁weite": 8415,
      "▁sucht": 8416,
      "▁freie": 8417,
      "▁Labor": 8418,
      "▁Höchst": 8419,
      "▁heil": 8420,
      "▁44": 8421,
      "weiger": 8422,
      "station": 8423,
      "hilfen": 8424,
      "▁sorgfäl": 8425,
      "ziger": 8426,
      "▁Nic": 8427,
      "ärt": 8428,
      "astian": 8429,
      "▁Wett": 8430,
      "lässigkeit": 8431,
      "stufe": 8432,
      "▁eigener": 8433,
      "▁Perspektive": 8434,
      "anda": 8435,
      "▁höchsten": 8436,
      "▁Ernährungs": 8437,
      "Ur": 8438,
      "▁Allein": 8439,
      "giene": 8440,
      "gerecht": 8441,
      "▁Provin": 8442,
      "FT": 8443,
      "uver": 8444,
      "rennen": 8445,
      "▁Kompl": 8446,
      "▁EN": 8447,
      "▁gleicher": 8448,
      "▁globalen": 8449,
      "▁Übernahme": 8450,
      "▁Vorstellung": 8451,
      "Cook": 8452,
      "▁Leber": 8453,
      "▁Motto": 8454,
      "▁Bill": 8455,
      "onte": 8456,
      "mess": 8457,
      "97": 8458,
      "▁ries": 8459,
      "▁Inhaber": 8460,
      "größ": 8461,
      "pression": 8462,
      "hu": 8463,
      "▁aufmerksam": 8464,
      "▁Zucker": 8465,
      "laufen": 8466,
      "▁FA": 8467,
      ".06.": 8468,
      "arakter": 8469,
      "▁Stich": 8470,
      "athie": 8471,
      "gner": 8472,
      "▁jüng": 8473,
      "▁türk": 8474,
      "ohle": 8475,
      "äudes": 8476,
      "▁47": 8477,
      "sätzen": 8478,
      "wärts": 8479,
      "ichtigkeit": 8480,
      "▁Seb": 8481,
      "unger": 8482,
      "sse": 8483,
      "▁Kalender": 8484,
      "Sie": 8485,
      "▁Handwerk": 8486,
      "plemen": 8487,
      "▁56": 8488,
      "▁begeist": 8489,
      "▁Flucht": 8490,
      "▁zurückge": 8491,
      "▁Auffassung": 8492,
      "▁Aussagen": 8493,
      "zessen": 8494,
      "▁Sachen": 8495,
      "▁sach": 8496,
      "▁Jesus": 8497,
      "▁Star": 8498,
      "Em": 8499,
      "▁brachte": 8500,
      "drom": 8501,
      "zone": 8502,
      "▁versteht": 8503,
      "▁Mau": 8504,
      "EC": 8505,
      "▁falsch": 8506,
      "skosten": 8507,
      "▁Ach": 8508,
      "quar": 8509,
      "anter": 8510,
      "ordnen": 8511,
      "Ph": 8512,
      "gefü": 8513,
      "▁schrieb": 8514,
      "▁Rechtsgrundlage": 8515,
      "▁beinhaltet": 8516,
      "▁interessant": 8517,
      "▁bezahlen": 8518,
      "▁Erwachsene": 8519,
      "▁Angehörigen": 8520,
      "szeit": 8521,
      "läufe": 8522,
      "▁Norm": 8523,
      "▁Termine": 8524,
      "würdig": 8525,
      "organisation": 8526,
      "▁häufigsten": 8527,
      "reihe": 8528,
      "PA": 8529,
      "▁speziellen": 8530,
      "▁sicherlich": 8531,
      "elor": 8532,
      "▁Josef": 8533,
      "▁Niveau": 8534,
      "▁längst": 8535,
      "▁Genehmigung": 8536,
      "träger": 8537,
      "phan": 8538,
      "ühen": 8539,
      "▁beliebt": 8540,
      "▁beruht": 8541,
      "▁Freiburg": 8542,
      "▁gesamm": 8543,
      "eigern": 8544,
      "▁8,": 8545,
      "▁Wann": 8546,
      "echan": 8547,
      "▁TH": 8548,
      "▁Problemen": 8549,
      "▁Silber": 8550,
      "bauten": 8551,
      "▁Körpers": 8552,
      "▁Bezeichnung": 8553,
      "▁Club": 8554,
      "▁AN": 8555,
      "legenheiten": 8556,
      "▁Verf": 8557,
      "▁Freiwill": 8558,
      "▁trocken": 8559,
      "▁Virus": 8560,
      "▁Carl": 8561,
      "▁Stimme": 8562,
      "▁fertig": 8563,
      ".04.": 8564,
      "▁Forderung": 8565,
      "▁Put": 8566,
      "▁Bier": 8567,
      "▁nachzu": 8568,
      "büro": 8569,
      "nitten": 8570,
      "ikte": 8571,
      "▁vorliegenden": 8572,
      "LAN": 8573,
      "brü": 8574,
      "▁Gab": 8575,
      "EW": 8576,
      "grad": 8577,
      "UT": 8578,
      "▁minim": 8579,
      "▁keinerlei": 8580,
      "▁weitgehend": 8581,
      "▁muß": 8582,
      "behandlung": 8583,
      "▁Koalition": 8584,
      "▁Verpack": 8585,
      "▁selber": 8586,
      "▁Dokumentation": 8587,
      "▁künf": 8588,
      "▁vermittelt": 8589,
      "▁geschieht": 8590,
      "▁Gestalt": 8591,
      "▁Elektron": 8592,
      "▁gesprochen": 8593,
      "▁Auflage": 8594,
      "▁Hamburger": 8595,
      "▁bauen": 8596,
      "pum": 8597,
      "▁Zwecken": 8598,
      "▁einiger": 8599,
      "▁Männern": 8600,
      "hod": 8601,
      "▁setzte": 8602,
      "spannung": 8603,
      "▁fe": 8604,
      "arische": 8605,
      "gesp": 8606,
      "▁Rand": 8607,
      "▁nör": 8608,
      "▁Sab": 8609,
      "▁langfristig": 8610,
      "▁Übertragung": 8611,
      "google": 8612,
      "▁Anzeige": 8613,
      "▁Kult": 8614,
      "▁Behinderung": 8615,
      "▁PS": 8616,
      "▁Störungen": 8617,
      "tigungs": 8618,
      "▁positiven": 8619,
      "iehlt": 8620,
      "ION": 8621,
      "▁sammeln": 8622,
      "▁ra": 8623,
      "▁Miss": 8624,
      "▁Konf": 8625,
      "ulierung": 8626,
      "▁Aktuell": 8627,
      "▁angegebenen": 8628,
      "Web": 8629,
      "▁Schül": 8630,
      "samen": 8631,
      "lächen": 8632,
      "▁herum": 8633,
      "▁wesentlichen": 8634,
      "▁Qualif": 8635,
      "▁SS": 8636,
      "ungsprozess": 8637,
      "▁Gefü": 8638,
      "IK": 8639,
      "▁Eröffnung": 8640,
      "▁fanden": 8641,
      "▁Neues": 8642,
      "▁geplanten": 8643,
      "▁Matthias": 8644,
      "kö": 8645,
      "cyc": 8646,
      "ramm": 8647,
      "das": 8648,
      "▁Leider": 8649,
      "▁außergewöhn": 8650,
      "isierten": 8651,
      "digten": 8652,
      "eise": 8653,
      "▁künst": 8654,
      "▁sparen": 8655,
      "▁Gehalt": 8656,
      "Welt": 8657,
      "ladung": 8658,
      "sekretär": 8659,
      "sersatz": 8660,
      "▁Sem": 8661,
      "▁Folgenden": 8662,
      "▁fragen": 8663,
      "▁Anton": 8664,
      "grenzung": 8665,
      "projekte": 8666,
      "leihen": 8667,
      "▁Tom": 8668,
      "▁Weiß": 8669,
      "▁Gegenwart": 8670,
      "▁Kass": 8671,
      "▁voran": 8672,
      "▁Rathaus": 8673,
      "hänomen": 8674,
      "▁Fal": 8675,
      "Str": 8676,
      "▁dritte": 8677,
      "▁anerkannt": 8678,
      "teilte": 8679,
      "▁starten": 8680,
      "▁Gran": 8681,
      "sprä": 8682,
      "▁Hir": 8683,
      "▁glück": 8684,
      "▁nied": 8685,
      "▁Forum": 8686,
      "fahrung": 8687,
      "▁zugrund": 8688,
      "!!": 8689,
      "krankungen": 8690,
      "leute": 8691,
      "val": 8692,
      "tial": 8693,
      "▁Übrigen": 8694,
      "pass": 8695,
      "Haus": 8696,
      "reichung": 8697,
      "▁Bestell": 8698,
      "▁Rum": 8699,
      "▁Geschwindigkeit": 8700,
      "▁elektronischen": 8701,
      "here": 8702,
      "unkel": 8703,
      "▁Nachricht": 8704,
      "▁1998": 8705,
      "▁Tum": 8706,
      "▁einfacher": 8707,
      ".01.": 8708,
      "itiative": 8709,
      "las": 8710,
      "▁entfernen": 8711,
      "▁Status": 8712,
      "kord": 8713,
      "▁Dos": 8714,
      "▁klin": 8715,
      "▁Haltung": 8716,
      "istin": 8717,
      "oral": 8718,
      "▁Walter": 8719,
      "▁Abstand": 8720,
      "wirkt": 8721,
      "ago": 8722,
      "ausend": 8723,
      "▁Verfahrens": 8724,
      "▁hilf": 8725,
      "▁Schmidt": 8726,
      "▁Erlebnis": 8727,
      "▁Effe": 8728,
      "▁notwendige": 8729,
      "▁con": 8730,
      "▁Bezirks": 8731,
      "▁Gött": 8732,
      "▁Last": 8733,
      "▁einfachen": 8734,
      "▁Zweiten": 8735,
      "▁eindeutig": 8736,
      "▁Belastung": 8737,
      "▁Mir": 8738,
      "▁Klar": 8739,
      "▁Spiegel": 8740,
      "▁Länge": 8741,
      "▁gewerb": 8742,
      "untersuch": 8743,
      "▁Wochenende": 8744,
      "baus": 8745,
      "rol": 8746,
      "▁erfolgreichen": 8747,
      "spunkt": 8748,
      "▁offenbar": 8749,
      "afé": 8750,
      "▁schönen": 8751,
      ".05.": 8752,
      "▁gezogen": 8753,
      "▁Strecke": 8754,
      "▁DIE": 8755,
      "zwei": 8756,
      "▁gestiegen": 8757,
      "eis": 8758,
      "▁Prop": 8759,
      "▁deta": 8760,
      "▁hinweg": 8761,
      "▁bearbeiten": 8762,
      "▁Send": 8763,
      "▁umwelt": 8764,
      "ändige": 8765,
      "artigen": 8766,
      "▁Angel": 8767,
      "bald": 8768,
      "örm": 8769,
      "▁Polit": 8770,
      "rock": 8771,
      "boden": 8772,
      "...)": 8773,
      "▁Philosophie": 8774,
      "▁Ähn": 8775,
      "▁COVID": 8776,
      "▁Autos": 8777,
      "▁Vorheriger": 8778,
      "▁jeweilige": 8779,
      "▁Microsoft": 8780,
      "▁ER": 8781,
      "▁vollen": 8782,
      "ilität": 8783,
      "▁ordnungs": 8784,
      "▁falls": 8785,
      "▁inklusive": 8786,
      "digungen": 8787,
      "▁ferner": 8788,
      "praxis": 8789,
      "▁mehrfach": 8790,
      "▁1970": 8791,
      "▁Geträn": 8792,
      "▁Niederlan": 8793,
      "öss": 8794,
      "▁aufgebaut": 8795,
      "▁detaill": 8796,
      "PN": 8797,
      "MA": 8798,
      "kter": 8799,
      "▁chem": 8800,
      "▁investieren": 8801,
      "▁Meine": 8802,
      "work": 8803,
      "fonds": 8804,
      "▁Otto": 8805,
      "▁begeg": 8806,
      "gesetzten": 8807,
      "▁Aussicht": 8808,
      "schädigung": 8809,
      "▁veranlassen": 8810,
      "Zu": 8811,
      "▁wollten": 8812,
      "▁Krimin": 8813,
      "▁Kron": 8814,
      "vort": 8815,
      "▁Fakten": 8816,
      "stuhl": 8817,
      "▁ziemlich": 8818,
      "▁effektiv": 8819,
      "▁niedriger": 8820,
      "reinigung": 8821,
      "▁Senat": 8822,
      "▁Nebenwirkungen": 8823,
      "ologe": 8824,
      "PDF": 8825,
      "machen": 8826,
      "▁begründet": 8827,
      "▁Seh": 8828,
      "ausende": 8829,
      "▁betreiben": 8830,
      "▁85": 8831,
      "▁Stadtteil": 8832,
      "speicher": 8833,
      "Projekt": 8834,
      "▁jedenfalls": 8835,
      "▁verstanden": 8836,
      "▁Trainer": 8837,
      "▁Solidar": 8838,
      "▁dauerhaft": 8839,
      "▁Wesent": 8840,
      "yd": 8841,
      "▁Sob": 8842,
      "zustand": 8843,
      "▁Agentur": 8844,
      "name": 8845,
      "rochen": 8846,
      "▁Erhöhung": 8847,
      "aftet": 8848,
      "gebühren": 8849,
      "▁Patri": 8850,
      "▁verbreitet": 8851,
      "tiere": 8852,
      "▁interessante": 8853,
      "▁Az": 8854,
      "▁Aufruf": 8855,
      "▁Hilf": 8856,
      "▁lautet": 8857,
      "▁ergänzen": 8858,
      "▁tö": 8859,
      "itar": 8860,
      "ränkungen": 8861,
      "▁Konzern": 8862,
      "▁Windows": 8863,
      "▁hum": 8864,
      "una": 8865,
      "▁Gün": 8866,
      "bezogene": 8867,
      "▁eingetragen": 8868,
      "▁verständ": 8869,
      "rac": 8870,
      "/200": 8871,
      "▁Grundsätzlich": 8872,
      "Jährige": 8873,
      "rib": 8874,
      "▁Mc": 8875,
      "▁Geschmack": 8876,
      "▁Gründ": 8877,
      "▁verbundenen": 8878,
      "▁station": 8879,
      "New": 8880,
      "▁(6": 8881,
      "lässt": 8882,
      "verständnis": 8883,
      "▁hinein": 8884,
      "▁Sprachen": 8885,
      "way": 8886,
      "▁unterliegen": 8887,
      "▁Schnell": 8888,
      "▁entf": 8889,
      "▁Telefonnummer": 8890,
      "samt": 8891,
      "▁wechseln": 8892,
      "2017": 8893,
      "ited": 8894,
      "etenz": 8895,
      "▁Austr": 8896,
      "san": 8897,
      "▁AL": 8898,
      "▁jünger": 8899,
      "▁Inhalten": 8900,
      "▁Intelligenz": 8901,
      "▁Beschreibung": 8902,
      "▁Chef": 8903,
      "förderung": 8904,
      "▁Mengen": 8905,
      "▁darstellt": 8906,
      "▁###": 8907,
      "▁Internetseiten": 8908,
      "▁Dortmund": 8909,
      "▁nachfolgen": 8910,
      "▁(*": 8911,
      "agnost": 8912,
      "▁planen": 8913,
      "bewegung": 8914,
      "register": 8915,
      "▁erläutert": 8916,
      "▁Nationen": 8917,
      "▁ZR": 8918,
      "▁getragen": 8919,
      "rechtlich": 8920,
      "▁ukrain": 8921,
      "gendes": 8922,
      "iller": 8923,
      "▁Notfall": 8924,
      "efähr": 8925,
      "▁Seminar": 8926,
      "▁rechtzeitig": 8927,
      "pal": 8928,
      "va": 8929,
      "rand": 8930,
      "▁empfiehlt": 8931,
      "lohn": 8932,
      "▁perfekt": 8933,
      "▁Zweifel": 8934,
      "▁alleine": 8935,
      "▁Wirksamkeit": 8936,
      "▁Entstehung": 8937,
      "stücks": 8938,
      "ella": 8939,
      "OT": 8940,
      "▁entdeckt": 8941,
      "▁Barb": 8942,
      "▁direkten": 8943,
      "▁Kompetenzen": 8944,
      "▁Geschen": 8945,
      "iguren": 8946,
      "▁Werner": 8947,
      "▁definiert": 8948,
      "kehrt": 8949,
      "▁Indien": 8950,
      "▁löschen": 8951,
      "ffel": 8952,
      "▁beschäftigen": 8953,
      "deutschen": 8954,
      "▁Überein": 8955,
      "▁Einschränkungen": 8956,
      "▁übersch": 8957,
      "kunst": 8958,
      "▁bekannte": 8959,
      "▁CH": 8960,
      "▁FDP": 8961,
      "▁Führungs": 8962,
      "rein": 8963,
      "▁überzeugen": 8964,
      "▁ser": 8965,
      "plo": 8966,
      "▁Merc": 8967,
      "87": 8968,
      "studium": 8969,
      "vertreter": 8970,
      "▁höchste": 8971,
      "▁Schlei": 8972,
      "▁Bezirk": 8973,
      "▁Gläub": 8974,
      "▁1000": 8975,
      "armon": 8976,
      "▁Architekten": 8977,
      "lieferung": 8978,
      "▁organisator": 8979,
      "▁Zunächst": 8980,
      "▁dre": 8981,
      "▁Ruf": 8982,
      "▁ärzt": 8983,
      "▁ant": 8984,
      "▁Beein": 8985,
      "▁Golf": 8986,
      "achs": 8987,
      "äuren": 8988,
      "zeitige": 8989,
      "▁verbinden": 8990,
      "▁umfassende": 8991,
      "▁erneuer": 8992,
      "▁42": 8993,
      "▁verfolgen": 8994,
      "▁generell": 8995,
      "▁orien": 8996,
      "▁Heiligen": 8997,
      "▁Kf": 8998,
      "▁England": 8999,
      "▁Instrument": 9000,
      "▁Center": 9001,
      "▁Fakult": 9002,
      "▁basiert": 9003,
      "▁Tief": 9004,
      "tika": 9005,
      "▁Naz": 9006,
      "▁berechtigten": 9007,
      "▁04": 9008,
      "▁ü": 9009,
      "▁Direktor": 9010,
      "stücke": 9011,
      "▁Gefähr": 9012,
      "Stiftung": 9013,
      "▁gefragt": 9014,
      "▁Gü": 9015,
      "▁präsentieren": 9016,
      "/19": 9017,
      "▁Vermieter": 9018,
      "▁unber": 9019,
      "▁frag": 9020,
      "oter": 9021,
      "▁gewöhn": 9022,
      "ührung": 9023,
      "▁motiv": 9024,
      "temperatur": 9025,
      "▁Deutscher": 9026,
      "gespräch": 9027,
      "verantwort": 9028,
      "istischer": 9029,
      "zens": 9030,
      "▁Impul": 9031,
      "mittelten": 9032,
      "▁600": 9033,
      "▁vari": 9034,
[...]
